<pad>	0
<s>	0
</s>	0
<unk>	0
▁t	-0
▁a	-1
▁i	-2
▁w	-3
he	-4
re	-5
at	-6
▁s	-7
▁c	-8
in	-9
▁the	-10
on	-11
▁d	-12
▁wh	-13
er	-14
an	-15
▁m	-16
ou	-17
▁b	-18
or	-19
▁h	-20
es	-21
▁f	-22
▁p	-23
▁in	-24
en	-25
▁o	-26
ing	-27
▁what	-28
▁is	-29
▁to	-30
al	-31
it	-32
▁an	-33
ar	-34
ow	-35
ic	-36
le	-37
om	-38
▁do	-39
▁of	-40
▁g	-41
st	-42
▁y	-43
ed	-44
▁l	-45
▁how	-46
▁e	-47
▁you	-48
▁n	-49
ve	-50
▁and	-51
ion	-52
▁are	-53
et	-54
▁th	-55
▁for	-56
ld	-57
as	-58
is	-59
▁re	-60
ll	-61
▁be	-62
▁can	-63
▁u	-64
ent	-65
ct	-66
▁st	-67
ro	-68
ra	-69
▁why	-70
id	-71
ce	-72
▁on	-73
▁it	-74
▁ha	-75
ch	-76
ly	-77
ould	-78
ot	-79
se	-80
est	-81
ver	-82
oo	-83
ri	-84
ay	-85
ke	-86
am	-87
ome	-88
ith	-89
ir	-90
op	-91
▁li	-92
▁my	-93
▁with	-94
▁sh	-95
ation	-96
ter	-97
ol	-98
▁or	-99
ig	-100
ur	-101
▁that	-102
ad	-103
▁we	-104
▁j	-105
nt	-106
out	-107
ut	-108
▁whe	-109
im	-110
▁mo	-111
▁if	-112
▁ch	-113
▁does	-114
▁have	-115
ill	-116
▁k	-117
ge	-118
▁as	-119
il	-120
▁de	-121
ers	-122
pp	-123
um	-124
us	-125
fe	-126
▁me	-127
▁v	-128
▁con	-129
ate	-130
▁pro	-131
▁some	-132
her	-133
ist	-134
▁se	-135
ul	-136
rom	-137
▁ex	-138
▁ma	-139
qu	-140
▁com	-141
one	-142
ant	-143
▁get	-144
di	-145
ich	-146
▁wor	-147
▁r	-148
▁from	-149
if	-150
▁so	-151
th	-152
▁your	-153
ck	-154
▁le	-155
▁at	-156
▁he	-157
▁which	-158
▁should	-159
ess	-160
▁ne	-161
ble	-162
▁when	-163
▁su	-164
▁would	-165
▁best	-166
os	-167
▁pe	-168
▁un	-169
▁ab	-170
end	-171
ity	-172
ine	-173
▁1	-174
ood	-175
▁any	-176
▁am	-177
un	-178
ive	-179
▁not	-180
and	-181
▁us	-182
▁peop	-183
el	-184
art	-185
res	-186
ment	-187
▁people	-188
pe	-189
ies	-190
▁there	-191
ans	-192
▁indi	-193
▁will	-194
ht	-195
▁who	-196
▁im	-197
▁tr	-198
are	-199
▁like	-200
▁2	-201
ci	-202
▁man	-203
▁en	-204
la	-205
ind	-206
ical	-207
▁qu	-208
▁af	-209
▁te	-210
ore	-211
ud	-212
ie	-213
▁did	-214
▁comp	-215
▁about	-216
▁was	-217
▁fa	-218
▁they	-219
our	-220
ort	-221
pt	-222
▁fe	-223
▁go	-224
▁bet	-225
▁by	-226
ia	-227
ure	-228
ard	-229
ust	-230
age	-231
▁al	-232
▁good	-233
ook	-234
ink	-235
▁ta	-236
ong	-237
▁ad	-238
ry	-239
ount	-240
▁int	-241
ain	-242
ip	-243
og	-244
ite	-245
▁ac	-246
per	-247
ally	-248
der	-249
▁dif	-250
iv	-251
ear	-252
▁all	-253
▁ever	-254
ass	-255
▁their	-256
ren	-257
▁ph	-258
ide	-259
ther	-260
all	-261
ag	-262
▁one	-263
ence	-264
ish	-265
▁app	-266
▁has	-267
▁mar	-268
▁bec	-269
em	-270
▁kn	-271
▁cl	-272
▁jo	-273
▁pl	-274
▁india	-275
▁where	-276
od	-277
▁lo	-278
▁work	-279
we	-280
ions	-281
▁ar	-282
▁think	-283
▁after	-284
ang	-285
▁but	-286
ap	-287
ice	-288
red	-289
ak	-290
ame	-291
▁diffe	-292
▁year	-293
▁ra	-294
ue	-295
▁stud	-296
▁other	-297
▁way	-298
▁most	-299
ics	-300
▁up	-301
▁eng	-302
▁know	-303
▁sp	-304
▁20	-305
vel	-306
oun	-307
▁pre	-308
▁this	-309
ont	-310
ab	-311
ght	-312
▁tim	-313
ast	-314
ance	-315
si	-316
ous	-317
▁out	-318
▁more	-319
arn	-320
▁sc	-321
ack	-322
▁make	-323
ween	-324
ary	-325
ile	-326
▁pers	-327
▁between	-328
▁mu	-329
iz	-330
act	-331
du	-332
ving	-333
▁many	-334
ens	-335
▁tra	-336
▁po	-337
ult	-338
ated	-339
▁use	-340
▁than	-341
▁want	-342
pl	-343
▁happ	-344
ep	-345
ect	-346
▁co	-347
ber	-348
▁person	-349
▁them	-350
▁count	-351
ations	-352
ress	-353
▁imp	-354
▁rel	-355
ound	-356
▁dis	-357
ign	-358
ight	-359
▁much	-360
▁bu	-361
▁ev	-362
▁cont	-363
▁col	-364
▁no	-365
▁someone	-366
▁ro	-367
▁start	-368
rent	-369
vers	-370
▁cons	-371
riend	-372
▁time	-373
irl	-374
ys	-375
gh	-376
▁life	-377
au	-378
▁per	-379
▁feel	-380
▁act	-381
▁pos	-382
ces	-383
bs	-384
▁inter	-385
▁res	-386
ath	-387
▁acc	-388
ory	-389
ree	-390
orm	-391
rit	-392
ian	-393
▁201	-394
ting	-395
▁world	-396
able	-397
▁bo	-398
king	-399
▁ag	-400
▁were	-401
ild	-402
ach	-403
▁girl	-404
ac	-405
eric	-406
▁che	-407
▁dont	-408
lect	-409
ub	-410
ump	-411
▁could	-412
ays	-413
reat	-414
ru	-415
▁spe	-416
▁3	-417
ors	-418
▁rec	-419
▁comm	-420
ram	-421
▁find	-422
▁em	-423
▁learn	-424
ings	-425
ents	-426
▁americ	-427
▁its	-428
▁new	-429
▁take	-430
▁over	-431
ire	-432
ool	-433
▁sy	-434
▁wom	-435
▁become	-436
fect	-437
▁uni	-438
ase	-439
▁bl	-440
▁just	-441
ph	-442
oc	-443
▁engine	-444
▁being	-445
▁mean	-446
▁quor	-447
erm	-448
▁his	-449
sible	-450
▁into	-451
▁off	-452
ks	-453
▁exam	-454
ial	-455
▁mus	-456
▁part	-457
de	-458
▁sa	-459
▁whats	-460
00	-461
ough	-462
ft	-463
▁pol	-464
ism	-465
led	-466
▁need	-467
▁la	-468
▁book	-469
ric	-470
▁gr	-471
▁without	-472
▁med	-473
lf	-474
own	-475
▁every	-476
▁under	-477
ering	-478
cess	-479
▁quora	-480
hip	-481
olog	-482
▁des	-483
▁sch	-484
rence	-485
cial	-486
int	-487
▁ser	-488
con	-489
▁sm	-490
▁ri	-491
▁car	-492
▁trump	-493
▁job	-494
▁inv	-495
▁chin	-496
▁possible	-497
ket	-498
▁friend	-499
av	-500
▁back	-501
▁better	-502
ject	-503
▁happen	-504
als	-505
▁pla	-506
▁fl	-507
▁inc	-508
▁been	-509
▁compan	-510
ced	-511
ating	-512
▁5	-513
eth	-514
ail	-515
▁gu	-516
▁sex	-517
▁indian	-518
ause	-519
▁gen	-520
▁old	-521
lic	-522
ities	-523
iss	-524
▁her	-525
▁years	-526
▁different	-527
ates	-528
▁long	-529
ff	-530
wn	-531
ful	-532
▁ke	-533
▁inst	-534
▁school	-535
▁att	-536
ose	-537
▁bus	-538
iness	-539
▁difference	-540
ater	-541
▁real	-542
▁cal	-543
▁fir	-544
te	-545
ual	-546
uring	-547
ord	-548
▁chan	-549
▁univers	-550
▁br	-551
lp	-552
igh	-553
▁had	-554
▁colle	-555
its	-556
▁only	-557
line	-558
ying	-559
▁inf	-560
ction	-561
▁elect	-562
ise	-563
up	-564
▁tw	-565
oney	-566
▁help	-567
ons	-568
ific	-569
les	-570
▁pr	-571
▁gra	-572
▁mon	-573
▁rep	-574
▁sci	-575
▁quest	-576
▁ty	-577
iew	-578
▁see	-579
▁hum	-580
▁still	-581
ank	-582
ese	-583
▁je	-584
▁reg	-585
▁even	-586
▁stop	-587
urn	-588
ular	-589
velop	-590
▁class	-591
▁wr	-592
▁exper	-593
▁first	-594
▁inte	-595
▁women	-596
▁country	-597
ick	-598
ries	-599
▁look	-600
ai	-601
▁fo	-602
▁adv	-603
▁own	-604
▁prog	-605
▁money	-606
cy	-607
▁develop	-608
▁business	-609
▁bel	-610
▁say	-611
▁used	-612
▁him	-613
▁our	-614
▁pres	-615
ational	-616
▁now	-617
▁ver	-618
▁trans	-619
▁she	-620
▁char	-621
▁during	-622
ts	-623
▁exp	-624
▁ind	-625
▁sk	-626
▁right	-627
ative	-628
▁4	-629
self	-630
ition	-631
▁produ	-632
▁engineering	-633
ict	-634
▁sol	-635
▁love	-636
▁while	-637
▁really	-638
cept	-639
▁fun	-640
lo	-641
ract	-642
▁war	-643
▁child	-644
ians	-645
▁intern	-646
kes	-647
▁play	-648
ists	-649
▁ear	-650
ade	-651
▁ob	-652
pect	-653
▁ho	-654
fore	-655
▁tech	-656
ody	-657
ower	-658
▁rem	-659
▁bi	-660
▁ca	-661
▁bas	-662
▁cur	-663
▁buy	-664
▁online	-665
▁experi	-666
uc	-667
orn	-668
ology	-669
▁program	-670
lim	-671
▁mov	-672
ments	-673
▁care	-674
▁give	-675
▁same	-676
ale	-677
▁bad	-678
▁down	-679
▁supp	-680
▁again	-681
lish	-682
▁bre	-683
▁before	-684
▁mat	-685
▁then	-686
stem	-687
▁cant	-688
▁form	-689
▁state	-690
ious	-691
▁tell	-692
ually	-693
▁using	-694
▁anyone	-695
▁college	-696
▁university	-697
oy	-698
▁day	-699
ically	-700
co	-701
▁cre	-702
▁thr	-703
▁cour	-704
ds	-705
▁bla	-706
▁fin	-707
▁having	-708
fer	-709
ages	-710
ution	-711
▁face	-712
▁sim	-713
▁market	-714
▁import	-715
▁system	-716
▁ed	-717
▁ins	-718
▁sub	-719
▁top	-720
hes	-721
ily	-722
▁because	-723
ix	-724
▁num	-725
▁pay	-726
▁vis	-727
▁place	-728
▁big	-729
▁ent	-730
▁things	-731
▁countries	-732
▁fam	-733
▁pur	-734
▁str	-735
▁high	-736
ata	-737
ple	-738
ited	-739
▁phys	-740
▁black	-741
▁getting	-742
rist	-743
other	-744
▁show	-745
▁techn	-746
ash	-747
▁ef	-748
▁dec	-749
▁free	-750
ert	-751
ved	-752
▁sur	-753
sc	-754
ron	-755
▁eu	-756
▁pri	-757
▁som	-758
▁aut	-759
▁men	-760
▁two	-761
▁live	-762
▁effect	-763
▁hy	-764
alth	-765
▁read	-766
▁ce	-767
▁ben	-768
▁dep	-769
▁val	-770
▁very	-771
▁science	-772
▁student	-773
▁12	-774
▁min	-775
▁lang	-776
li	-777
ms	-778
ock	-779
▁sal	-780
▁made	-781
▁prep	-782
▁doing	-783
▁study	-784
▁aw	-785
▁op	-786
rest	-787
▁plan	-788
▁account	-789
▁ans	-790
▁pop	-791
▁such	-792
ace	-793
▁law	-794
▁leg	-795
▁av	-796
ident	-797
▁prof	-798
▁company	-799
ins	-800
▁cor	-801
▁gener	-802
▁langu	-803
▁thing	-804
▁students	-805
day	-806
ger	-807
ves	-808
▁bra	-809
▁sing	-810
▁relations	-811
▁x	-812
▁2017	-813
uter	-814
arent	-815
▁keep	-816
▁name	-817
▁pass	-818
▁ways	-819
▁belie	-820
▁muslim	-821
gn	-822
xt	-823
hed	-824
rib	-825
▁air	-826
▁test	-827
▁month	-828
get	-829
▁10	-830
ards	-831
▁ide	-832
▁english	-833
ral	-834
▁2018	-835
▁answ	-836
▁true	-837
▁change	-838
so	-839
oth	-840
ull	-841
llow	-842
▁sign	-843
▁through	-844
gy	-845
me	-846
▁z	-847
▁experience	-848
▁relationship	-849
az	-850
ones	-851
▁add	-852
book	-853
▁writ	-854
▁pa	-855
▁tal	-856
▁fact	-857
▁home	-858
▁computer	-859
iet	-860
▁ask	-861
▁parent	-862
▁american	-863
arch	-864
ream	-865
vern	-866
ather	-867
▁come	-868
▁hist	-869
▁serv	-870
▁great	-871
▁social	-872
ef	-873
ize	-874
man	-875
▁det	-876
▁rus	-877
▁white	-878
hi	-879
ason	-880
▁def	-881
▁china	-882
▁ext	-883
▁less	-884
▁post	-885
▁human	-886
▁govern	-887
ince	-888
▁cle	-889
conom	-890
▁kind	-891
friend	-892
▁polit	-893
ouse	-894
▁eas	-895
▁going	-896
▁important	-897
▁questions	-898
gle	-899
ants	-900
▁sec	-901
▁euro	-902
ty	-903
▁fr	-904
▁ps	-905
chan	-906
form	-907
▁par	-908
ought	-909
▁commun	-910
▁design	-911
ways	-912
▁har	-913
▁tri	-914
▁food	-915
▁never	-916
▁econom	-917
▁invest	-918
▁parents	-919
ne	-920
atch	-921
▁maj	-922
▁learning	-923
▁non	-924
ption	-925
▁books	-926
▁water	-927
▁sw	-928
ures	-929
▁mem	-930
▁hand	-931
▁hard	-932
▁proble	-933
ps	-934
▁end	-935
▁too	-936
thing	-937
gest	-938
▁met	-939
▁major	-940
ave	-941
▁el	-942
ames	-943
ired	-944
▁data	-945
▁dist	-946
mit	-947
ted	-948
ute	-949
▁ve	-950
▁fore	-951
▁germ	-952
▁kill	-953
▁soci	-954
▁against	-955
ba	-956
ples	-957
▁equ	-958
ality	-959
▁power	-960
▁europe	-961
▁current	-962
▁process	-963
▁art	-964
▁giv	-965
istan	-966
▁christ	-967
▁chinese	-968
min	-969
ware	-970
▁ret	-971
▁friends	-972
▁government	-973
▁fut	-974
▁lit	-975
▁win	-976
▁webs	-977
▁follow	-978
▁states	-979
ites	-980
▁ass	-981
▁beh	-982
▁dem	-983
▁fav	-984
▁term	-985
ething	-986
▁canad	-987
▁girls	-988
▁product	-989
ten	-990
ices	-991
ster	-992
view	-993
▁mil	-994
ature	-995
▁always	-996
▁something	-997
ars	-998
ges	-999
ility	-1000
ublic	-1001
▁accept	-1002
▁health	-1003
▁number	-1004
▁language	-1005
ern	-1006
ond	-1007
▁soft	-1008
▁phone	-1009
gan	-1010
ness	-1011
outh	-1012
▁let	-1013
▁train	-1014
▁doesnt	-1015
▁put	-1016
ional	-1017
▁requ	-1018
▁const	-1019
▁history	-1020
rol	-1021
▁19	-1022
ines	-1023
ming	-1024
▁prov	-1025
▁super	-1026
▁future	-1027
▁7	-1028
land	-1029
▁boy	-1030
▁anim	-1031
▁point	-1032
▁relig	-1033
▁write	-1034
ield	-1035
▁caus	-1036
▁cent	-1037
▁comple	-1038
wor	-1039
ural	-1040
▁opp	-1041
stand	-1042
▁each	-1043
▁build	-1044
▁impro	-1045
▁affect	-1046
▁body	-1047
▁norm	-1048
▁vide	-1049
▁view	-1050
▁makes	-1051
na	-1052
ploy	-1053
▁deg	-1054
▁dog	-1055
▁cost	-1056
▁list	-1057
▁9	-1058
pes	-1059
▁cr	-1060
ared	-1061
vent	-1062
▁got	-1063
▁pat	-1064
▁mass	-1065
idered	-1066
▁earth	-1067
▁considered	-1068
com	-1069
▁cam	-1070
▁fil	-1071
▁pak	-1072
▁set	-1073
▁ter	-1074
▁grou	-1075
verage	-1076
▁house	-1077
▁america	-1078
ats	-1079
ning	-1080
▁age	-1081
▁goo	-1082
▁rest	-1083
▁type	-1084
▁family	-1085
▁german	-1086
▁charact	-1087
▁working	-1088
▁actually	-1089
cc	-1090
tle	-1091
ues	-1092
▁del	-1093
▁brit	-1094
▁main	-1095
▁movie	-1096
▁travel	-1097
▁companies	-1098
▁8	-1099
ied	-1100
ner	-1101
▁ant	-1102
▁ban	-1103
▁imm	-1104
▁conf	-1105
▁join	-1106
▁marri	-1107
▁treat	-1108
▁around	-1109
▁mechan	-1110
▁facebook	-1111
▁interest	-1112
▁lot	-1113
▁net	-1114
▁suc	-1115
▁lead	-1116
▁pain	-1117
▁wrong	-1118
ctor	-1119
▁100	-1120
▁bro	-1121
▁eat	-1122
▁wee	-1123
▁able	-1124
▁ment	-1125
▁found	-1126
▁media	-1127
ib	-1128
ope	-1129
ret	-1130
onal	-1131
▁arm	-1132
▁nor	-1133
▁psy	-1134
▁cult	-1135
▁sell	-1136
▁song	-1137
▁word	-1138
▁allow	-1139
▁benef	-1140
▁stand	-1141
▁google	-1142
▁believe	-1143
umb	-1144
▁jap	-1145
▁sle	-1146
▁educ	-1147
▁move	-1148
▁myself	-1149
ss	-1150
▁dev	-1151
▁choo	-1152
▁incre	-1153
▁score	-1154
▁small	-1155
▁career	-1156
read	-1157
▁cod	-1158
▁cra	-1159
▁dri	-1160
▁usa	-1161
ories	-1162
▁full	-1163
▁prot	-1164
▁apply	-1165
▁break	-1166
▁light	-1167
ior	-1168
lam	-1169
▁mot	-1170
aring	-1171
▁chem	-1172
▁turn	-1173
▁exist	-1174
▁favor	-1175
▁music	-1176
▁since	-1177
▁woman	-1178
▁manage	-1179
▁united	-1180
▁support	-1181
▁pakistan	-1182
▁president	-1183
▁understand	-1184
els	-1185
▁uk	-1186
ider	-1187
ission	-1188
▁chang	-1189
▁japan	-1190
▁examples	-1191
▁question	-1192
▁god	-1193
▁gun	-1194
▁kid	-1195
▁call	-1196
▁well	-1197
▁average	-1198
▁software	-1199
gin	-1200
▁dr	-1201
▁guy	-1202
▁jee	-1203
▁done	-1204
▁grow	-1205
▁last	-1206
▁meth	-1207
▁west	-1208
▁happens	-1209
▁muslims	-1210
▁children	-1211
ror	-1212
udi	-1213
ator	-1214
ters	-1215
▁bat	-1216
▁civ	-1217
▁run	-1218
▁ste	-1219
▁bang	-1220
▁deal	-1221
▁south	-1222
▁worth	-1223
▁canada	-1224
▁normal	-1225
ier	-1226
mat	-1227
▁et	-1228
cent	-1229
▁dra	-1230
▁low	-1231
▁hate	-1232
▁open	-1233
▁short	-1234
▁called	-1235
▁employ	-1236
▁expect	-1237
▁reason	-1238
erv	-1239
ety	-1240
ips	-1241
rop	-1242
uck	-1243
▁iss	-1244
▁hind	-1245
▁phot	-1246
▁spec	-1247
▁civil	-1248
▁psych	-1249
▁another	-1250
▁thought	-1251
raph	-1252
▁mod	-1253
▁cert	-1254
▁left	-1255
▁liber	-1256
▁order	-1257
▁course	-1258
▁create	-1259
ove	-1260
▁rese	-1261
▁level	-1262
▁control	-1263
▁americans	-1264
▁ap	-1265
▁ir	-1266
tern	-1267
▁ref	-1268
itive	-1269
▁also	-1270
▁dire	-1271
▁head	-1272
ah	-1273
ead	-1274
ium	-1275
omm	-1276
ffic	-1277
hing	-1278
ills	-1279
▁pen	-1280
▁both	-1281
▁diff	-1282
▁ener	-1283
▁kore	-1284
▁self	-1285
▁known	-1286
▁marks	-1287
▁those	-1288
▁answer	-1289
▁degree	-1290
▁living	-1291
▁physics	-1292
▁project	-1293
▁success	-1294
gal	-1295
ote	-1296
ude	-1297
▁id	-1298
verse	-1299
▁sleep	-1300
▁applic	-1301
cle	-1302
ube	-1303
cond	-1304
▁iit	-1305
▁earn	-1306
▁mach	-1307
▁choose	-1308
▁making	-1309
ital	-1310
▁cap	-1311
onald	-1312
▁aust	-1313
▁bank	-1314
▁days	-1315
▁instead	-1316
ird	-1317
▁sl	-1318
ient	-1319
ized	-1320
load	-1321
▁hot	-1322
▁anal	-1323
▁seem	-1324
▁dream	-1325
▁indust	-1326
▁improve	-1327
▁medical	-1328
arc	-1329
ense	-1330
▁jew	-1331
▁tax	-1332
▁next	-1333
▁north	-1334
▁speak	-1335
ression	-1336
▁common	-1337
▁prepare	-1338
be	-1339
br	-1340
ho	-1341
io	-1342
ark	-1343
▁ok	-1344
▁wa	-1345
ilar	-1346
nect	-1347
▁cat	-1348
▁fem	-1349
▁sit	-1350
phone	-1351
▁land	-1352
▁mind	-1353
▁cause	-1354
▁field	-1355
▁energy	-1356
▁favorite	-1357
▁research	-1358
cul	-1359
▁tv	-1360
▁fre	-1361
▁card	-1362
▁hair	-1363
▁step	-1364
ograph	-1365
▁offic	-1366
▁salary	-1367
▁foreign	-1368
▁similar	-1369
▁website	-1370
bo	-1371
ler	-1372
▁away	-1373
▁game	-1374
▁stat	-1375
▁yout	-1376
ration	-1377
▁moder	-1378
▁organ	-1379
▁react	-1380
▁times	-1381
▁others	-1382
▁anything	-1383
▁development	-1384
▁15	-1385
less	-1386
▁mic	-1387
▁priv	-1388
▁group	-1389
▁causes	-1390
▁donald	-1391
▁method	-1392
▁prefer	-1393
▁taking	-1394
▁profess	-1395
▁happened	-1396
ime	-1397
ball	-1398
ides	-1399
ives	-1400
▁bit	-1401
▁cir	-1402
▁tur	-1403
▁date	-1404
▁idea	-1405
▁jobs	-1406
▁based	-1407
▁didnt	-1408
▁islam	-1409
▁value	-1410
▁visit	-1411
▁watch	-1412
mission	-1413
▁second	-1414
▁popular	-1415
▁problem	-1416
lu	-1417
▁11	-1418
ding	-1419
▁cri	-1420
▁est	-1421
▁log	-1422
▁disc	-1423
▁rank	-1424
▁brain	-1425
▁death	-1426
▁given	-1427
▁milit	-1428
▁pract	-1429
▁video	-1430
▁weight	-1431
▁character	-1432
▁education	-1433
nd	-1434
pa	-1435
mer	-1436
osed	-1437
▁cut	-1438
▁far	-1439
▁mom	-1440
▁cell	-1441
▁isnt	-1442
aching	-1443
▁afric	-1444
▁today	-1445
▁proper	-1446
▁connect	-1447
▁writing	-1448
ses	-1449
▁ru	-1450
bers	-1451
bile	-1452
ling	-1453
vert	-1454
▁aff	-1455
▁bar	-1456
▁leave	-1457
▁space	-1458
▁recomm	-1459
▁austral	-1460
ify	-1461
▁18	-1462
▁sn	-1463
ange	-1464
llig	-1465
port	-1466
▁cla	-1467
▁gre	-1468
▁pot	-1469
▁resp	-1470
▁said	-1471
▁tips	-1472
▁week	-1473
▁delhi	-1474
▁story	-1475
▁partic	-1476
▁public	-1477
▁general	-1478
▁service	-1479
▁recommend	-1480
ik	-1481
ma	-1482
ency	-1483
rect	-1484
ruct	-1485
▁cit	-1486
▁etc	-1487
▁lar	-1488
▁pun	-1489
▁sho	-1490
▁hour	-1491
▁math	-1492
▁oper	-1493
▁avail	-1494
▁meaning	-1495
▁intellig	-1496
▁marketing	-1497
▁management	-1498
▁mechanical	-1499
ows	-1500
sia	-1501
▁er	-1502
▁ey	-1503
lain	-1504
pose	-1505
▁due	-1506
▁city	-1507
▁past	-1508
▁star	-1509
▁autom	-1510
▁fight	-1511
▁gradu	-1512
▁these	-1513
antages	-1514
▁amount	-1515
▁recent	-1516
▁indians	-1517
▁internet	-1518
▁technology	-1519
▁international	-1520
▁es	-1521
▁ge	-1522
▁hur	-1523
▁tem	-1524
▁var	-1525
▁vir	-1526
▁yet	-1527
icult	-1528
▁safe	-1529
▁talk	-1530
▁blood	-1531
▁often	-1532
▁single	-1533
▁machine	-1534
▁society	-1535
▁startup	-1536
▁consider	-1537
air	-1538
gra	-1539
iod	-1540
▁mal	-1541
▁rom	-1542
alore	-1543
▁mess	-1544
▁orig	-1545
▁engineer	-1546
▁difficult	-1547
gr	-1548
ush	-1549
cing	-1550
ison	-1551
▁mba	-1552
▁sym	-1553
▁web	-1554
▁amaz	-1555
▁send	-1556
▁skin	-1557
▁stay	-1558
▁team	-1559
▁inform	-1560
▁months	-1561
▁police	-1562
▁russia	-1563
▁terror	-1564
▁youtube	-1565
▁increase	-1566
▁religion	-1567
▁effective	-1568
oid	-1569
oph	-1570
use	-1571
▁bh	-1572
anch	-1573
▁may	-1574
▁nat	-1575
wards	-1576
▁fall	-1577
▁link	-1578
▁lose	-1579
▁mast	-1580
▁youn	-1581
▁influ	-1582
▁night	-1583
▁british	-1584
▁special	-1585
▁subject	-1586
▁military	-1587
▁bangalore	-1588
bi	-1589
ym	-1590
bal	-1591
che	-1592
ken	-1593
▁vi	-1594
▁ww	-1595
ible	-1596
▁ara	-1597
▁loc	-1598
▁mor	-1599
▁neg	-1600
▁pet	-1601
▁red	-1602
▁case	-1603
▁lost	-1604
istics	-1605
▁smart	-1606
▁sound	-1607
▁movies	-1608
▁option	-1609
▁interview	-1610
▁political	-1611
▁ur	-1612
▁cry	-1613
▁ive	-1614
▁mer	-1615
▁sug	-1616
▁fast	-1617
▁phil	-1618
▁democ	-1619
▁types	-1620
▁behind	-1621
▁period	-1622
▁strong	-1623
▁attract	-1624
▁looking	-1625
▁benefits	-1626
ama	-1627
ipp	-1628
body	-1629
oice	-1630
▁wal	-1631
▁role	-1632
ources	-1633
ulation	-1634
▁female	-1635
▁object	-1636
▁present	-1637
▁everyone	-1638
nn	-1639
ane	-1640
imum	-1641
▁div	-1642
▁hig	-1643
▁los	-1644
▁mid	-1645
ledge	-1646
▁code	-1647
▁desc	-1648
▁mill	-1649
▁news	-1650
▁rate	-1651
▁sent	-1652
▁citiz	-1653
▁creat	-1654
▁games	-1655
▁stock	-1656
ication	-1657
▁modern	-1658
▁skills	-1659
▁germany	-1660
▁available	-1661
app	-1662
▁di	-1663
abad	-1664
▁hit	-1665
▁opt	-1666
▁rev	-1667
istry	-1668
▁incl	-1669
▁force	-1670
▁mathe	-1671
▁speed	-1672
▁studi	-1673
▁worst	-1674
▁humans	-1675
▁origin	-1676
▁prevent	-1677
▁purpose	-1678
▁personal	-1679
▁training	-1680
▁boyfriend	-1681
cl	-1682
mo	-1683
ug	-1684
aut	-1685
gen	-1686
nam	-1687
que	-1688
ton	-1689
▁glo	-1690
▁rac	-1691
ished	-1692
ready	-1693
▁foot	-1694
▁hold	-1695
▁line	-1696
▁contin	-1697
▁already	-1698
▁culture	-1699
▁example	-1700
▁private	-1701
▁function	-1702
▁mathemat	-1703
▁studying	-1704
▁christian	-1705
cer	-1706
den	-1707
unt	-1708
ased	-1709
band	-1710
roid	-1711
ship	-1712
ured	-1713
▁bir	-1714
▁fat	-1715
▁fix	-1716
▁rid	-1717
▁tre	-1718
▁try	-1719
ision	-1720
▁else	-1721
▁prom	-1722
▁wind	-1723
▁email	-1724
▁legal	-1725
▁russi	-1726
olution	-1727
▁mobile	-1728
▁rather	-1729
▁biggest	-1730
▁explain	-1731
▁services	-1732
▁programming	-1733
bit	-1734
cum	-1735
lle	-1736
ogn	-1737
sel	-1738
ume	-1739
▁gl	-1740
work	-1741
▁bab	-1742
▁dom	-1743
▁dest	-1744
▁rich	-1745
▁vers	-1746
▁block	-1747
▁happy	-1748
▁complete	-1749
▁download	-1750
▁products	-1751
sh	-1752
ung	-1753
val	-1754
way	-1755
▁30	-1756
atic	-1757
iate	-1758
▁eth	-1759
▁ill	-1760
▁sam	-1761
▁sum	-1762
lling	-1763
▁bill	-1764
▁host	-1765
▁shop	-1766
▁claim	-1767
▁clean	-1768
ination	-1769
▁instit	-1770
▁mother	-1771
▁percent	-1772
▁protect	-1773
▁electron	-1774
▁required	-1775
▁successful	-1776
ala	-1777
dle	-1778
por	-1779
rap	-1780
ury	-1781
ptop	-1782
ucle	-1783
▁occ	-1784
▁sat	-1785
ender	-1786
illed	-1787
order	-1788
▁meet	-1789
▁miss	-1790
▁modi	-1791
▁liter	-1792
▁paper	-1793
▁attack	-1794
▁laptop	-1795
▁places	-1796
▁trying	-1797
▁married	-1798
▁national	-1799
zy	-1800
ots	-1801
ribe	-1802
ross	-1803
▁die	-1804
▁nit	-1805
enced	-1806
ences	-1807
▁mult	-1808
▁opin	-1809
▁activ	-1810
▁begin	-1811
▁model	-1812
▁nucle	-1813
ography	-1814
▁advice	-1815
▁direct	-1816
▁moving	-1817
▁series	-1818
▁solution	-1819
▁knowledge	-1820
oms	-1821
fact	-1822
▁ach	-1823
▁cop	-1824
▁env	-1825
▁sla	-1826
▁vol	-1827
istic	-1828
▁area	-1829
▁guys	-1830
▁isra	-1831
▁surv	-1832
▁wear	-1833
▁defin	-1834
▁mater	-1835
▁polic	-1836
▁press	-1837
▁share	-1838
▁terms	-1839
▁eating	-1840
▁electr	-1841
▁enough	-1842
▁allowed	-1843
▁perform	-1844
▁industry	-1845
▁girlfriend	-1846
rug	-1847
▁eg	-1848
ches	-1849
orts	-1850
ping	-1851
reme	-1852
ward	-1853
▁tou	-1854
anger	-1855
ators	-1856
ister	-1857
ouble	-1858
▁blog	-1859
▁cust	-1860
▁must	-1861
▁finan	-1862
cessary	-1863
▁commit	-1864
▁iphone	-1865
▁israel	-1866
▁remove	-1867
▁scient	-1868
▁secret	-1869
▁android	-1870
▁chances	-1871
▁contact	-1872
▁quality	-1873
▁japanese	-1874
▁universe	-1875
▁australia	-1876
000	-1877
ana	-1878
har	-1879
▁50	-1880
▁ms	-1881
ging	-1882
tech	-1883
▁hus	-1884
opath	-1885
▁ille	-1886
▁narc	-1887
▁purs	-1888
ensive	-1889
▁appro	-1890
▁price	-1891
▁scope	-1892
▁store	-1893
ization	-1894
▁determ	-1895
▁result	-1896
▁return	-1897
▁select	-1898
▁though	-1899
▁answers	-1900
▁problems	-1901
ases	-1902
augh	-1903
come	-1904
▁jav	-1905
▁ris	-1906
acher	-1907
ortun	-1908
rench	-1909
▁acad	-1910
▁army	-1911
▁athe	-1912
▁easy	-1913
▁prop	-1914
▁rece	-1915
▁rele	-1916
▁side	-1917
idence	-1918
lement	-1919
▁bring	-1920
▁immig	-1921
▁marry	-1922
▁micro	-1923
▁appear	-1924
▁conserv	-1925
▁economy	-1926
▁related	-1927
50	-1928
lly	-1929
row	-1930
▁cy	-1931
ered	-1932
here	-1933
math	-1934
over	-1935
▁200	-1936
▁ang	-1937
▁lat	-1938
▁phd	-1939
▁son	-1940
▁cond	-1941
▁gain	-1942
▁redu	-1943
▁viol	-1944
ential	-1945
▁check	-1946
▁drink	-1947
▁ident	-1948
▁manag	-1949
▁party	-1950
▁youve	-1951
▁academ	-1952
▁matter	-1953
▁husband	-1954
▁teacher	-1955
▁material	-1956
20	-1957
tt	-1958
xy	-1959
gth	-1960
osp	-1961
oud	-1962
▁13	-1963
iest	-1964
▁bal	-1965
▁box	-1966
▁dam	-1967
▁dig	-1968
▁gay	-1969
▁ign	-1970
▁tam	-1971
urity	-1972
▁arab	-1973
▁cred	-1974
▁fail	-1975
▁clear	-1976
▁event	-1977
▁least	-1978
▁access	-1979
▁amazon	-1980
▁impact	-1981
▁invent	-1982
▁narciss	-1983
▁started	-1984
ification	-1985
▁negative	-1986
▁information	-1987
of	-1988
ake	-1989
ift	-1990
yle	-1991
▁pu	-1992
lace	-1993
▁ann	-1994
▁vit	-1995
allen	-1996
ified	-1997
▁kids	-1998
▁male	-1999
▁radi	-2000
▁stra	-2001
selves	-2002
▁along	-2003
▁hours	-2004
▁korea	-2005
▁limit	-2006
▁french	-2007
▁likely	-2008
▁little	-2009
▁mental	-2010
▁courses	-2011
▁employe	-2012
▁liberals	-2013
▁opportun	-2014
▁admission	-2015
▁necessary	-2016
ged	-2017
med	-2018
▁obs	-2019
asons	-2020
▁cast	-2021
▁conc	-2022
▁says	-2023
▁text	-2024
▁asked	-2025
▁avoid	-2026
▁basic	-2027
▁becom	-2028
▁young	-2029
▁calcul	-2030
▁global	-2031
▁regard	-2032
▁within	-2033
▁animals	-2034
▁correct	-2035
▁effects	-2036
▁towards	-2037
▁compared	-2038
▁thinking	-2039
▁thoughts	-2040
▁yourself	-2041
▁chemistry	-2042
▁universities	-2043
▁q	-2044
ife	-2045
▁vs	-2046
▁mag	-2047
▁mis	-2048
▁vac	-2049
iable	-2050
oring	-2051
▁dead	-2052
▁fear	-2053
▁here	-2054
▁insp	-2055
▁pict	-2056
▁room	-2057
▁seen	-2058
▁tool	-2059
▁brand	-2060
▁cheap	-2061
▁exact	-2062
▁pregn	-2063
▁spend	-2064
ability	-2065
▁famous	-2066
▁challen	-2067
▁natural	-2068
▁nothing	-2069
▁coaching	-2070
▁physical	-2071
▁advantages	-2072
▁depression	-2073
▁everything	-2074
▁themselves	-2075
ha	-2076
ets	-2077
ker	-2078
vid	-2079
ateg	-2080
indi	-2081
▁enj	-2082
▁hal	-2083
▁mur	-2084
umbai	-2085
▁cele	-2086
▁dele	-2087
▁fres	-2088
▁qual	-2089
▁achie	-2090
▁indep	-2091
▁quant	-2092
▁solve	-2093
▁views	-2094
▁democr	-2095
▁issues	-2096
▁respon	-2097
▁struct	-2098
▁useful	-2099
▁concept	-2100
▁provide	-2101
▁colleges	-2102
▁constant	-2103
▁community	-2104
asc	-2105
ley	-2106
omb	-2107
son	-2108
▁iq	-2109
ript	-2110
▁ast	-2111
▁bed	-2112
▁bud	-2113
▁cse	-2114
▁den	-2115
▁dia	-2116
▁fla	-2117
▁jud	-2118
▁oil	-2119
▁sun	-2120
▁yes	-2121
oting	-2122
▁arch	-2123
▁gate	-2124
▁gold	-2125
▁hurt	-2126
▁sure	-2127
▁heart	-2128
aration	-2129
▁africa	-2130
▁higher	-2131
▁mumbai	-2132
▁rights	-2133
▁sexual	-2134
▁theory	-2135
▁schools	-2136
▁western	-2137
▁european	-2138
▁independ	-2139
▁republic	-2140
▁specific	-2141
cs	-2142
uss	-2143
aily	-2144
ided	-2145
side	-2146
tery	-2147
used	-2148
▁abs	-2149
▁hom	-2150
▁key	-2151
▁ram	-2152
▁smo	-2153
▁tot	-2154
▁diet	-2155
▁manu	-2156
▁near	-2157
▁neet	-2158
▁ones	-2159
▁site	-2160
▁teen	-2161
▁daily	-2162
▁lives	-2163
▁three	-2164
▁wants	-2165
▁includ	-2166
▁partner	-2167
▁application	-2168
ga	-2169
ani	-2170
bly	-2171
ene	-2172
hol	-2173
let	-2174
▁14	-2175
▁cs	-2176
ised	-2177
itch	-2178
ruit	-2179
▁emp	-2180
▁hyp	-2181
▁mix	-2182
rated	-2183
▁crit	-2184
▁emot	-2185
▁expl	-2186
▁fire	-2187
▁jews	-2188
▁once	-2189
▁suic	-2190
atives	-2191
iction	-2192
▁board	-2193
▁hindu	-2194
▁obama	-2195
▁tamil	-2196
▁commer	-2197
▁doctor	-2198
▁racist	-2199
▁review	-2200
▁extreme	-2201
▁feeling	-2202
▁nuclear	-2203
▁officer	-2204
▁studies	-2205
▁suggest	-2206
▁chemical	-2207
▁manufact	-2208
▁pressure	-2209
▁signific	-2210
▁population	-2211
bt	-2212
ny	-2213
ze	-2214
bon	-2215
cra	-2216
mar	-2217
mon	-2218
▁ep	-2219
ched	-2220
iron	-2221
wood	-2222
▁ago	-2223
▁cou	-2224
▁lab	-2225
▁ple	-2226
▁sil	-2227
▁won	-2228
agram	-2229
apore	-2230
imate	-2231
ource	-2232
▁conv	-2233
▁cook	-2234
▁doll	-2235
▁king	-2236
▁poor	-2237
▁porn	-2238
▁situ	-2239
ctions	-2240
ording	-2241
▁asian	-2242
▁color	-2243
▁early	-2244
▁medic	-2245
▁offer	-2246
▁songs	-2247
▁youre	-2248
▁chance	-2249
▁custom	-2250
▁changed	-2251
▁contain	-2252
▁illegal	-2253
▁respect	-2254
▁systems	-2255
▁electric	-2256
▁marriage	-2257
▁starting	-2258
▁websites	-2259
▁instagram	-2260
▁resources	-2261
by	-2262
ov	-2263
▁0	-2264
coin	-2265
nnai	-2266
unch	-2267
▁hor	-2268
▁pub	-2269
▁rul	-2270
▁apps	-2271
▁beat	-2272
▁port	-2273
▁race	-2274
▁uses	-2275
cially	-2276
rences	-2277
▁arent	-2278
▁chann	-2279
▁enjoy	-2280
▁motiv	-2281
derabad	-2282
▁compet	-2283
▁recogn	-2284
▁topics	-2285
▁brother	-2286
▁chennai	-2287
▁environ	-2288
▁opinion	-2289
▁windows	-2290
▁distance	-2291
▁positive	-2292
▁institute	-2293
▁singapore	-2294
cu	-2295
ney	-2296
▁cb	-2297
▁du	-2298
▁anx	-2299
▁mel	-2300
anced	-2301
▁cann	-2302
▁cars	-2303
▁dark	-2304
▁ital	-2305
▁okay	-2306
▁page	-2307
▁paid	-2308
▁tele	-2309
▁visa	-2310
ground	-2311
ressed	-2312
▁among	-2313
▁analy	-2314
▁facts	-2315
▁green	-2316
▁novel	-2317
▁weird	-2318
▁words	-2319
▁altern	-2320
▁asking	-2321
▁father	-2322
▁nation	-2323
fficient	-2324
ological	-2325
▁healthy	-2326
▁numbers	-2327
▁outside	-2328
▁reasons	-2329
▁football	-2330
▁hyderabad	-2331
▁environment	-2332
▁mathematics	-2333
▁professional	-2334
des	-2335
hen	-2336
ina	-2337
▁ai	-2338
ache	-2339
icle	-2340
iety	-2341
iger	-2342
word	-2343
▁few	-2344
▁fit	-2345
▁foc	-2346
▁hol	-2347
▁joh	-2348
▁max	-2349
ances	-2350
▁blue	-2351
▁coun	-2352
▁deep	-2353
▁east	-2354
▁prin	-2355
▁reci	-2356
▁save	-2357
▁wars	-2358
manent	-2359
▁beaut	-2360
▁behav	-2361
▁birth	-2362
▁comes	-2363
▁final	-2364
▁ideas	-2365
▁invol	-2366
▁large	-2367
▁teach	-2368
▁track	-2369
▁credit	-2370
▁danger	-2371
▁inside	-2372
▁killed	-2373
▁office	-2374
▁report	-2375
▁contrib	-2376
▁reading	-2377
▁regular	-2378
▁russian	-2379
▁talking	-2380
▁version	-2381
▁becoming	-2382
▁building	-2383
▁financial	-2384
▁completely	-2385
▁electrical	-2386
▁communication	-2387
ca	-2388
fl	-2389
aur	-2390
ffe	-2391
ham	-2392
mes	-2393
ota	-2394
uth	-2395
ever	-2396
ival	-2397
ners	-2398
rodu	-2399
▁fly	-2400
▁hes	-2401
▁len	-2402
▁sud	-2403
▁tar	-2404
vious	-2405
▁born	-2406
▁chur	-2407
▁dogs	-2408
▁file	-2409
▁film	-2410
▁pack	-2411
▁plat	-2412
itions	-2413
▁alone	-2414
▁corru	-2415
▁daugh	-2416
▁drive	-2417
▁quick	-2418
▁analys	-2419
▁hindus	-2420
▁income	-2421
▁middle	-2422
▁player	-2423
▁policy	-2424
▁threat	-2425
▁individ	-2426
▁indones	-2427
▁stories	-2428
▁citizens	-2429
▁security	-2430
▁expensive	-2431
▁permanent	-2432
fs	-2433
ya	-2434
acy	-2435
cut	-2436
het	-2437
key	-2438
oor	-2439
pal	-2440
ray	-2441
urb	-2442
▁17	-2443
▁pc	-2444
etic	-2445
▁pal	-2446
ember	-2447
right	-2448
▁baby	-2449
▁ball	-2450
▁cbse	-2451
▁draw	-2452
▁laws	-2453
▁sens	-2454
▁size	-2455
gether	-2456
▁crush	-2457
▁disco	-2458
▁dress	-2459
▁femin	-2460
▁front	-2461
▁names	-2462
▁taken	-2463
▁branch	-2464
▁easily	-2465
▁multip	-2466
▁proced	-2467
▁masters	-2468
▁describe	-2469
▁original	-2470
▁together	-2471
▁currently	-2472
▁interesting	-2473
▁intelligence	-2474
rs	-2475
tm	-2476
ux	-2477
avy	-2478
cil	-2479
ell	-2480
erc	-2481
ero	-2482
ilt	-2483
ims	-2484
lex	-2485
off	-2486
ork	-2487
uge	-2488
und	-2489
xic	-2490
▁ic	-2491
ails	-2492
ancy	-2493
cies	-2494
utes	-2495
▁gas	-2496
▁sen	-2497
▁sep	-2498
▁tit	-2499
▁unt	-2500
icket	-2501
ising	-2502
▁camp	-2503
▁cool	-2504
▁evil	-2505
▁fake	-2506
▁half	-2507
▁pros	-2508
ension	-2509
▁accom	-2510
▁close	-2511
▁estab	-2512
▁graph	-2513
▁lower	-2514
▁steps	-2515
▁total	-2516
ruction	-2517
▁immigr	-2518
▁letter	-2519
▁stream	-2520
▁require	-2521
▁disorder	-2522
▁property	-2523
▁languages	-2524
▁religious	-2525
▁investment	-2526
ech	-2527
ids	-2528
lor	-2529
men	-2530
▁23	-2531
aves	-2532
iled	-2533
orce	-2534
ored	-2535
racy	-2536
ried	-2537
road	-2538
stic	-2539
upid	-2540
▁ali	-2541
▁bes	-2542
▁bul	-2543
▁fed	-2544
ctors	-2545
▁burn	-2546
▁came	-2547
▁cand	-2548
▁desp	-2549
▁drug	-2550
▁forg	-2551
▁java	-2552
▁kash	-2553
▁scre	-2554
▁vict	-2555
▁wont	-2556
▁apple	-2557
▁court	-2558
▁exams	-2559
▁might	-2560
▁roman	-2561
▁seems	-2562
▁somet	-2563
▁table	-2564
▁users	-2565
▁voice	-2566
▁works	-2567
ference	-2568
▁destro	-2569
▁entire	-2570
▁longer	-2571
▁needed	-2572
▁plants	-2573
▁prison	-2574
▁techni	-2575
▁certain	-2576
▁classes	-2577
▁graduate	-2578
▁standard	-2579
▁according	-2580
▁developed	-2581
▁challenges	-2582
▁preparation	-2583
mp	-2584
ste	-2585
▁21	-2586
▁ip	-2587
ades	-2588
imes	-2589
ined	-2590
ires	-2591
ques	-2592
▁hyd	-2593
▁mad	-2594
▁ssc	-2595
anish	-2596
ients	-2597
itect	-2598
▁boys	-2599
▁cold	-2600
▁coll	-2601
▁hack	-2602
▁harm	-2603
▁nice	-2604
▁told	-2605
atures	-2606
▁adult	-2607
▁apart	-2608
▁crime	-2609
▁docum	-2610
▁enter	-2611
▁exerc	-2612
▁grand	-2613
▁issue	-2614
▁kashm	-2615
▁later	-2616
▁mains	-2617
▁maint	-2618
▁means	-2619
isation	-2620
▁church	-2621
▁faster	-2622
▁photos	-2623
▁record	-2624
▁sudden	-2625
▁accompl	-2626
▁anxiety	-2627
▁battery	-2628
▁bitcoin	-2629
▁collect	-2630
▁compare	-2631
▁content	-2632
▁finance	-2633
▁realize	-2634
▁restaur	-2635
▁advanced	-2636
▁analysis	-2637
▁overcome	-2638
▁planning	-2639
▁recently	-2640
▁economics	-2641
▁situation	-2642
▁treatment	-2643
▁christians	-2644
▁particular	-2645
▁intelligent	-2646
▁characteristics	-2647
gl	-2648
go	-2649
amp	-2650
att	-2651
ned	-2652
▁ba	-2653
▁mi	-2654
ighb	-2655
ring	-2656
uing	-2657
▁arg	-2658
▁pan	-2659
▁sha	-2660
▁tor	-2661
cohol	-2662
craft	-2663
ended	-2664
rency	-2665
▁cash	-2666
▁eyes	-2667
▁gets	-2668
▁grav	-2669
▁heat	-2670
▁iron	-2671
▁mist	-2672
▁moon	-2673
▁note	-2674
▁risk	-2675
▁sold	-2676
▁wife	-2677
▁crack	-2678
▁hindi	-2679
▁maths	-2680
▁shows	-2681
▁sites	-2682
▁worse	-2683
llywood	-2684
▁abroad	-2685
▁charge	-2686
▁coming	-2687
▁dating	-2688
▁neighb	-2689
▁reject	-2690
▁stupid	-2691
▁achieve	-2692
▁consult	-2693
▁factors	-2694
▁minimum	-2695
▁politic	-2696
▁recover	-2697
▁certific	-2698
▁greatest	-2699
▁politics	-2700
▁powerful	-2701
▁undergra	-2702
▁architect	-2703
▁experienced	-2704
▁opportunities	-2705
cel	-2706
nic	-2707
ven	-2708
▁25	-2709
▁py	-2710
empt	-2711
hood	-2712
rict	-2713
▁dub	-2714
▁emb	-2715
▁ess	-2716
▁flu	-2717
▁jes	-2718
▁lay	-2719
▁mac	-2720
▁pie	-2721
▁sem	-2722
▁ten	-2723
apers	-2724
cient	-2725
ester	-2726
iring	-2727
vered	-2728
▁base	-2729
▁bomb	-2730
▁comb	-2731
▁four	-2732
▁gram	-2733
▁jack	-2734
▁john	-2735
▁late	-2736
▁mand	-2737
▁rock	-2738
▁rule	-2739
▁wait	-2740
▁wish	-2741
itable	-2742
urance	-2743
▁agree	-2744
▁colon	-2745
▁harry	-2746
▁heard	-2747
▁older	-2748
▁possi	-2749
▁sales	-2750
▁third	-2751
▁tried	-2752
▁buying	-2753
▁carbon	-2754
▁memory	-2755
▁repres	-2756
▁search	-2757
▁temper	-2758
▁therap	-2759
▁videos	-2760
▁alcohol	-2761
▁devices	-2762
▁exactly	-2763
▁options	-2764
▁recruit	-2765
▁feelings	-2766
▁sentence	-2767
▁evolution	-2768
▁procedure	-2769
▁regarding	-2770
▁structure	-2771
▁background	-2772
▁interested	-2773
▁differences	-2774
▁electronics	-2775
pr	-2776
ta	-2777
ads	-2778
ery	-2779
ino	-2780
ode	-2781
ped	-2782
urs	-2783
ague	-2784
erve	-2785
gers	-2786
ises	-2787
ived	-2788
most	-2789
osis	-2790
pped	-2791
time	-2792
very	-2793
▁dim	-2794
▁enc	-2795
▁rob	-2796
▁sau	-2797
▁squ	-2798
ither	-2799
othes	-2800
ounds	-2801
▁fish	-2802
▁meas	-2803
▁poly	-2804
▁prob	-2805
▁suff	-2806
▁upsc	-2807
▁wall	-2808
▁weap	-2809
lished	-2810
▁cross	-2811
▁crypt	-2812
▁freed	-2813
▁jesus	-2814
▁needs	-2815
▁purch	-2816
▁sense	-2817
▁style	-2818
▁truth	-2819
▁acting	-2820
▁advert	-2821
▁animal	-2822
▁cities	-2823
▁corpor	-2824
▁master	-2825
▁simple	-2826
▁ancient	-2827
▁created	-2828
▁despite	-2829
▁liberal	-2830
▁quantum	-2831
▁suicide	-2832
▁remember	-2833
▁transfer	-2834
▁dangerous	-2835
▁developer	-2836
▁following	-2837
▁sometimes	-2838
▁characters	-2839
▁internship	-2840
▁percentage	-2841
▁personality	-2842
ems	-2843
han	-2844
oss	-2845
uly	-2846
yal	-2847
omet	-2848
pper	-2849
soci	-2850
tain	-2851
▁bot	-2852
▁bur	-2853
▁cru	-2854
▁hon	-2855
▁lea	-2856
▁pil	-2857
▁saf	-2858
▁san	-2859
▁wed	-2860
arian	-2861
board	-2862
owers	-2863
press	-2864
urate	-2865
▁five	-2866
▁jour	-2867
▁mole	-2868
▁weak	-2869
▁went	-2870
ention	-2871
▁camer	-2872
▁cells	-2873
▁cover	-2874
▁focus	-2875
▁grade	-2876
▁hands	-2877
▁minor	-2878
▁peace	-2879
▁refer	-2880
▁shall	-2881
▁until	-2882
▁almost	-2883
▁became	-2884
▁differ	-2885
▁events	-2886
▁member	-2887
▁planet	-2888
▁remain	-2889
▁saying	-2890
▁ticket	-2891
▁address	-2892
▁channel	-2893
▁manager	-2894
▁maximum	-2895
▁members	-2896
▁methods	-2897
▁perfect	-2898
▁playing	-2899
▁traffic	-2900
▁whether	-2901
▁wouldnt	-2902
▁continue	-2903
▁everyday	-2904
▁features	-2905
▁practice	-2906
▁watching	-2907
▁accomplish	-2908
▁importance	-2909
▁narcissist	-2910
da	-2911
hy	-2912
my	-2913
adv	-2914
bol	-2915
hor	-2916
pur	-2917
▁ii	-2918
anda	-2919
fort	-2920
onym	-2921
roll	-2922
▁dad	-2923
▁ele	-2924
▁eye	-2925
▁gst	-2926
▁jun	-2927
▁lic	-2928
▁lim	-2929
asing	-2930
iforn	-2931
inton	-2932
osoph	-2933
▁espe	-2934
▁fair	-2935
▁feed	-2936
▁hosp	-2937
▁milk	-2938
▁pune	-2939
▁stre	-2940
▁viet	-2941
▁wast	-2942
▁abuse	-2943
▁categ	-2944
▁range	-2945
▁topic	-2946
▁trade	-2947
▁affair	-2948
▁afford	-2949
▁cancer	-2950
▁candid	-2951
▁celebr	-2952
▁consum	-2953
▁disadv	-2954
▁double	-2955
▁groups	-2956
▁listen	-2957
▁muscle	-2958
▁phones	-2959
▁pursue	-2960
▁regist	-2961
▁season	-2962
▁transl	-2963
▁unique	-2964
▁wealth	-2965
▁capital	-2966
▁changes	-2967
▁convert	-2968
▁killing	-2969
▁pattern	-2970
▁running	-2971
▁spanish	-2972
▁californ	-2973
▁platform	-2974
▁position	-2975
▁produced	-2976
▁programs	-2977
▁straight	-2978
▁determine	-2979
▁engineers	-2980
▁extremely	-2981
▁happening	-2982
▁activities	-2983
▁especially	-2984
▁individual	-2985
▁independent	-2986
▁temperature	-2987
10	-2988
ob	-2989
akh	-2990
ali	-2991
arm	-2992
lin	-2993
uel	-2994
uff	-2995
▁dy	-2996
▁hi	-2997
▁mb	-2998
▁ut	-2999
akes	-3000
days	-3001
ends	-3002
face	-3003
hest	-3004
lied	-3005
uses	-3006
▁dat	-3007
▁dip	-3008
▁dro	-3009
▁dut	-3010
▁lif	-3011
▁mah	-3012
▁nar	-3013
▁rot	-3014
▁veh	-3015
▁wat	-3016
atory	-3017
gress	-3018
iding	-3019
iling	-3020
inary	-3021
ously	-3022
rogen	-3023
▁audi	-3024
▁fund	-3025
▁magn	-3026
▁mart	-3027
▁pick	-3028
▁pred	-3029
▁rent	-3030
▁sche	-3031
▁slow	-3032
▁soon	-3033
▁stri	-3034
▁tall	-3035
▁tren	-3036
▁turk	-3037
ending	-3038
▁crazy	-3039
▁manip	-3040
▁mexic	-3041
▁parts	-3042
▁reach	-3043
▁trust	-3044
▁weeks	-3045
itation	-3046
▁cannot	-3047
▁flight	-3048
▁giving	-3049
▁handle	-3050
▁korean	-3051
▁latest	-3052
▁leader	-3053
▁source	-3054
▁target	-3055
▁besides	-3056
▁billion	-3057
▁clothes	-3058
▁digital	-3059
▁dollars	-3060
▁freedom	-3061
▁network	-3062
▁profile	-3063
▁various	-3064
▁vietnam	-3065
▁written	-3066
▁accepted	-3067
▁daughter	-3068
▁technical	-3069
▁california	-3070
▁literature	-3071
▁christianity	-3072
gs	-3073
ka	-3074
ox	-3075
gre	-3076
ria	-3077
wal	-3078
▁24	-3079
▁ye	-3080
ingu	-3081
otes	-3082
soft	-3083
▁asp	-3084
▁cup	-3085
▁fal	-3086
▁fig	-3087
▁mut	-3088
▁naz	-3089
▁raj	-3090
▁tex	-3091
▁voc	-3092
aries	-3093
ategy	-3094
ivity	-3095
▁dise	-3096
▁drop	-3097
▁edit	-3098
▁gand	-3099
▁geor	-3100
▁liqu	-3101
▁rape	-3102
▁rout	-3103
▁trad	-3104
▁wood	-3105
▁york	-3106
▁basis	-3107
▁looks	-3108
▁meant	-3109
▁print	-3110
▁prior	-3111
▁whole	-3112
▁associ	-3113
▁conver	-3114
▁easier	-3115
▁height	-3116
▁speech	-3117
▁summer	-3118
▁symbol	-3119
▁values	-3120
▁britain	-3121
▁destroy	-3122
▁fresher	-3123
▁himself	-3124
▁replace	-3125
▁survive	-3126
▁accurate	-3127
▁atheists	-3128
▁election	-3129
▁evidence	-3130
▁inspired	-3131
▁multiple	-3132
▁pregnant	-3133
▁shouldnt	-3134
▁speaking	-3135
▁strategy	-3136
▁subjects	-3137
▁functions	-3138
▁implement	-3139
▁influence	-3140
▁insurance	-3141
▁philosoph	-3142
▁placement	-3143
▁connection	-3144
▁definition	-3145
▁generation	-3146
ex	-3147
ann	-3148
old	-3149
ole	-3150
rel	-3151
set	-3152
ably	-3153
ales	-3154
iful	-3155
iles	-3156
like	-3157
ocur	-3158
rome	-3159
room	-3160
▁500	-3161
▁ias	-3162
▁mit	-3163
▁oxy	-3164
▁que	-3165
▁ran	-3166
▁sin	-3167
▁sky	-3168
▁tom	-3169
▁upd	-3170
ively	-3171
riate	-3172
where	-3173
▁acid	-3174
▁adop	-3175
▁airl	-3176
▁copy	-3177
▁guns	-3178
▁hear	-3179
▁iran	-3180
▁loss	-3181
▁rude	-3182
▁spir	-3183
▁subs	-3184
▁vill	-3185
▁vote	-3186
▁zero	-3187
utions	-3188
▁extra	-3189
▁fully	-3190
▁glass	-3191
▁judge	-3192
▁plant	-3193
▁round	-3194
▁separ	-3195
▁solar	-3196
▁union	-3197
itution	-3198
▁actual	-3199
▁anonym	-3200
▁bengal	-3201
▁device	-3202
▁france	-3203
▁gender	-3204
▁itself	-3205
▁jewish	-3206
▁league	-3207
▁mostly	-3208
▁obtain	-3209
▁papers	-3210
▁reduce	-3211
▁sister	-3212
▁sports	-3213
▁todays	-3214
▁trumps	-3215
▁wanted	-3216
▁central	-3217
▁citizen	-3218
▁details	-3219
▁knowing	-3220
▁leaving	-3221
▁legally	-3222
▁masturb	-3223
▁million	-3224
▁receive	-3225
▁trouble	-3226
▁usually	-3227
▁washing	-3228
▁academic	-3229
▁contract	-3230
▁economic	-3231
▁expected	-3232
▁previous	-3233
▁shooting	-3234
▁beautiful	-3235
▁placements	-3236
▁psychopath	-3237
▁certificate	-3238
▁relationships	-3239
aw	-3240
ji	-3241
rm	-3242
put	-3243
rum	-3244
sem	-3245
ula	-3246
▁dc	-3247
▁lg	-3248
ault	-3249
char	-3250
full	-3251
inal	-3252
otic	-3253
▁bon	-3254
▁bsc	-3255
▁deb	-3256
▁fel	-3257
▁ice	-3258
▁lad	-3259
▁pra	-3260
▁sus	-3261
▁typ	-3262
▁wit	-3263
ached	-3264
aking	-3265
andom	-3266
duate	-3267
icate	-3268
icles	-3269
itude	-3270
ondon	-3271
pping	-3272
▁cath	-3273
▁deli	-3274
▁dent	-3275
▁fram	-3276
▁hero	-3277
▁hill	-3278
▁lawy	-3279
▁quit	-3280
▁rise	-3281
▁seat	-3282
▁stom	-3283
▁swed	-3284
▁user	-3285
▁wake	-3286
▁absol	-3287
▁btech	-3288
▁condu	-3289
▁dubai	-3290
▁hotel	-3291
▁likes	-3292
▁nepal	-3293
▁niger	-3294
▁occur	-3295
▁photo	-3296
▁proof	-3297
▁rules	-3298
▁stren	-3299
▁taxes	-3300
▁touch	-3301
▁truly	-3302
▁valid	-3303
▁veget	-3304
▁assist	-3305
▁budget	-3306
▁center	-3307
▁choice	-3308
▁colour	-3309
▁damage	-3310
▁decide	-3311
▁empire	-3312
▁growth	-3313
▁london	-3314
▁nature	-3315
▁please	-3316
▁seeing	-3317
▁virgin	-3318
ropriate	-3319
▁applied	-3320
▁discuss	-3321
▁doctors	-3322
▁kashmir	-3323
▁peoples	-3324
▁philipp	-3325
▁produce	-3326
▁selling	-3327
▁setting	-3328
▁turkish	-3329
▁wearing	-3330
▁wedding	-3331
▁changing	-3332
▁employee	-3333
▁majority	-3334
▁password	-3335
▁reaction	-3336
▁employees	-3337
▁including	-3338
▁preparing	-3339
▁represent	-3340
▁terrorists	-3341
▁applications	-3342
▁disadvantages	-3343
18	-3344
bu	-3345
ii	-3346
ky	-3347
ban	-3348
bre	-3349
eal	-3350
gor	-3351
ica	-3352
oma	-3353
pro	-3354
uls	-3355
▁ly	-3356
▁ny	-3357
▁od	-3358
▁pg	-3359
ains	-3360
chat	-3361
ghan	-3362
list	-3363
olic	-3364
sung	-3365
▁ber	-3366
▁exc	-3367
▁fee	-3368
▁fra	-3369
▁gar	-3370
▁hat	-3371
▁sea	-3372
aming	-3373
aster	-3374
izing	-3375
light	-3376
pects	-3377
rible	-3378
ulate	-3379
works	-3380
▁asia	-3381
▁band	-3382
▁dipl	-3383
▁dumb	-3384
▁fees	-3385
▁fing	-3386
▁flat	-3387
▁hire	-3388
▁karn	-3389
▁load	-3390
▁loan	-3391
▁mbbs	-3392
▁rain	-3393
▁remo	-3394
▁scen	-3395
▁shut	-3396
▁sick	-3397
▁snap	-3398
bility	-3399
change	-3400
▁above	-3401
▁datab	-3402
▁entry	-3403
▁mount	-3404
▁prove	-3405
▁radio	-3406
▁stage	-3407
▁sympt	-3408
itional	-3409
▁author	-3410
▁demand	-3411
▁ethnic	-3412
▁favour	-3413
▁forces	-3414
▁formed	-3415
▁histor	-3416
▁hitler	-3417
▁length	-3418
▁moment	-3419
▁murder	-3420
▁native	-3421
▁turkey	-3422
ifically	-3423
▁balance	-3424
▁biology	-3425
▁century	-3426
▁clinton	-3427
▁concern	-3428
▁convers	-3429
▁express	-3430
▁gravity	-3431
▁reality	-3432
▁samsung	-3433
▁treated	-3434
▁absolute	-3435
▁applying	-3436
▁convince	-3437
▁maintain	-3438
▁projects	-3439
▁somebody	-3440
▁violence	-3441
▁democrats	-3442
▁generally	-3443
▁statement	-3444
▁terrorist	-3445
▁transport	-3446
▁attractive	-3447
▁commercial	-3448
▁constantly	-3449
▁production	-3450
▁restaurant	-3451
▁statistics	-3452
▁techniques	-3453
▁republicans	-3454
▁responsible	-3455
▁conservative	-3456
▁construction	-3457
▁significance	-3458
▁accomplishments	-3459
ae	-3460
ee	-3461
aka	-3462
ari	-3463
can	-3464
erg	-3465
log	-3466
rep	-3467
rif	-3468
ris	-3469
unk	-3470
▁90	-3471
back	-3472
bert	-3473
ceed	-3474
gery	-3475
gypt	-3476
idge	-3477
more	-3478
ores	-3479
thon	-3480
vere	-3481
xual	-3482
▁199	-3483
▁aim	-3484
▁cab	-3485
▁cos	-3486
▁cow	-3487
▁ece	-3488
▁ham	-3489
▁kit	-3490
▁lin	-3491
▁msc	-3492
▁swe	-3493
antic	-3494
fully	-3495
▁genu	-3496
▁goes	-3497
▁gree	-3498
▁morn	-3499
▁pric	-3500
▁road	-3501
▁suck	-3502
▁actor	-3503
▁aware	-3504
▁blind	-3505
▁brown	-3506
▁built	-3507
▁cards	-3508
▁chick	-3509
▁egypt	-3510
▁frequ	-3511
▁infin	-3512
▁motor	-3513
▁occup	-3514
▁oppos	-3515
▁saudi	-3516
▁schol	-3517
▁signs	-3518
▁smell	-3519
▁teeth	-3520
▁tools	-3521
▁action	-3522
▁coding	-3523
▁compon	-3524
▁crimes	-3525
▁detect	-3526
▁dreams	-3527
▁either	-3528
▁except	-3529
▁havent	-3530
▁hotels	-3531
▁oxygen	-3532
▁profit	-3533
▁random	-3534
▁resist	-3535
▁street	-3536
▁stress	-3537
▁switch	-3538
▁african	-3539
▁attempt	-3540
▁couldnt	-3541
▁disease	-3542
▁morning	-3543
▁objects	-3544
▁picture	-3545
▁protest	-3546
▁serious	-3547
▁showing	-3548
▁accounts	-3549
▁aircraft	-3550
▁calories	-3551
▁exercise	-3552
▁pursuing	-3553
▁relative	-3554
▁reliable	-3555
▁sexually	-3556
▁startups	-3557
▁suddenly	-3558
▁teachers	-3559
▁cryptocur	-3560
▁efficient	-3561
▁microsoft	-3562
▁transform	-3563
▁corruption	-3564
▁psychology	-3565
▁constitution	-3566
bb	-3567
do	-3568
ifa	-3569
omy	-3570
wan	-3571
war	-3572
▁ju	-3573
▁pi	-3574
▁ss	-3575
down	-3576
ffee	-3577
head	-3578
icks	-3579
itor	-3580
mary	-3581
oles	-3582
oted	-3583
term	-3584
viet	-3585
▁aer	-3586
▁bow	-3587
▁der	-3588
▁dur	-3589
▁eff	-3590
▁gym	-3591
▁hab	-3592
▁inn	-3593
▁rad	-3594
▁sbi	-3595
▁tel	-3596
etime	-3597
itter	-3598
lands	-3599
place	-3600
rimin	-3601
▁bull	-3602
▁cric	-3603
▁fine	-3604
▁gone	-3605
▁lack	-3606
▁mong	-3607
▁path	-3608
▁pupp	-3609
▁sand	-3610
▁trip	-3611
▁walk	-3612
▁whos	-3613
ensity	-3614
▁admin	-3615
▁alive	-3616
▁andor	-3617
▁angry	-3618
▁areas	-3619
▁bache	-3620
▁bible	-3621
▁carry	-3622
▁ended	-3623
▁equal	-3624
▁hasnt	-3625
▁heavy	-3626
▁lines	-3627
▁moral	-3628
▁storm	-3629
▁takes	-3630
▁thats	-3631
▁whose	-3632
ificial	-3633
ription	-3634
▁afghan	-3635
▁belong	-3636
▁campus	-3637
▁caused	-3638
▁circum	-3639
▁coffee	-3640
▁compar	-3641
▁gandhi	-3642
▁points	-3643
▁potter	-3644
▁screen	-3645
▁theyre	-3646
▁transg	-3647
atically	-3648
▁benefit	-3649
▁comfort	-3650
▁consist	-3651
▁cricket	-3652
▁formula	-3653
▁mention	-3654
▁nations	-3655
▁payment	-3656
▁quickly	-3657
▁sources	-3658
▁stomach	-3659
▁weapons	-3660
▁accident	-3661
▁decision	-3662
▁directly	-3663
▁interact	-3664
▁movement	-3665
▁pictures	-3666
▁attention	-3667
▁calculate	-3668
▁establish	-3669
▁potential	-3670
▁acceptable	-3671
▁physically	-3672
▁appropriate	-3673
▁performance	-3674
▁recommended	-3675
▁conservatives	-3676
jp	-3677
ju	-3678
ws	-3679
arr	-3680
ask	-3681
dom	-3682
olf	-3683
olk	-3684
oop	-3685
oty	-3686
ply	-3687
ulf	-3688
▁40	-3689
▁bp	-3690
▁ib	-3691
▁pm	-3692
cles	-3693
eral	-3694
host	-3695
lier	-3696
ller	-3697
rial	-3698
▁ads	-3699
▁cig	-3700
▁don	-3701
▁hun	-3702
▁las	-3703
▁nut	-3704
▁ped	-3705
▁rif	-3706
▁sik	-3707
▁sou	-3708
▁unf	-3709
ataka	-3710
ining	-3711
usive	-3712
▁ange	-3713
▁bits	-3714
▁fash	-3715
▁hell	-3716
▁imag	-3717
▁kept	-3718
▁lock	-3719
▁myth	-3720
▁neut	-3721
▁nose	-3722
▁park	-3723
▁tend	-3724
▁twin	-3725
▁unit	-3726
▁wild	-3727
angers	-3728
coming	-3729
iation	-3730
▁admit	-3731
▁below	-3732
▁cases	-3733
▁diagn	-3734
▁domin	-3735
▁frame	-3736
▁gives	-3737
▁intel	-3738
▁local	-3739
▁metal	-3740
▁penis	-3741
▁shoes	-3742
▁solid	-3743
ivalent	-3744
ologies	-3745
▁across	-3746
▁analyt	-3747
▁breast	-3748
▁cutoff	-3749
▁define	-3750
▁malays	-3751
▁obsess	-3752
▁paying	-3753
▁propag	-3754
▁resume	-3755
▁retail	-3756
▁scared	-3757
▁sector	-3758
▁simply	-3759
▁soviet	-3760
▁square	-3761
▁status	-3762
▁supply	-3763
▁suppor	-3764
▁traits	-3765
▁ability	-3766
▁continu	-3767
▁driving	-3768
▁failure	-3769
▁fiction	-3770
▁genuine	-3771
▁growing	-3772
▁italian	-3773
▁leaders	-3774
▁persons	-3775
▁surgery	-3776
▁behavior	-3777
▁category	-3778
▁document	-3779
▁drinking	-3780
▁exchange	-3781
▁mentally	-3782
▁neighbor	-3783
▁progress	-3784
▁biography	-3785
▁europeans	-3786
▁favourite	-3787
▁karnataka	-3788
▁artificial	-3789
▁developing	-3790
▁equivalent	-3791
▁immigrants	-3792
▁philippines	-3793
▁architecture	-3794
11	-3795
15	-3796
gi	-3797
ls	-3798
mi	-3799
ok	-3800
ql	-3801
wa	-3802
anc	-3803
asa	-3804
asm	-3805
irt	-3806
isc	-3807
ril	-3808
zil	-3809
▁22	-3810
▁ie	-3811
▁rs	-3812
▁tu	-3813
aged	-3814
ario	-3815
dies	-3816
ipur	-3817
iter	-3818
lymp	-3819
mber	-3820
osit	-3821
rate	-3822
uals	-3823
ught	-3824
umin	-3825
wise	-3826
▁194	-3827
▁300	-3828
▁dou	-3829
▁fan	-3830
▁fro	-3831
▁ira	-3832
▁ken	-3833
▁ker	-3834
▁lie	-3835
▁neu	-3836
▁obc	-3837
▁sad	-3838
▁six	-3839
▁syn	-3840
▁ven	-3841
arter	-3842
chool	-3843
estic	-3844
fered	-3845
inder	-3846
ishes	-3847
otech	-3848
uting	-3849
▁1000	-3850
▁adam	-3851
▁arts	-3852
▁bike	-3853
▁capt	-3854
▁cart	-3855
▁cats	-3856
▁coin	-3857
▁corn	-3858
▁diam	-3859
▁disp	-3860
▁feet	-3861
▁felt	-3862
▁hall	-3863
▁hole	-3864
▁init	-3865
▁jump	-3866
▁mark	-3867
▁mars	-3868
▁meat	-3869
▁mode	-3870
▁pret	-3871
▁repe	-3872
▁ring	-3873
▁root	-3874
▁shot	-3875
▁till	-3876
▁town	-3877
▁whom	-3878
ricult	-3879
▁anime	-3880
▁catch	-3881
▁comed	-3882
▁fault	-3883
▁forms	-3884
▁image	-3885
▁journ	-3886
▁logic	-3887
▁olymp	-3888
▁pharm	-3889
▁piece	-3890
▁prote	-3891
▁serve	-3892
▁stuff	-3893
▁sugar	-3894
ionally	-3895
raction	-3896
▁bigger	-3897
▁brazil	-3898
▁contro	-3899
▁crimin	-3900
▁critic	-3901
▁disapp	-3902
▁habits	-3903
▁infect	-3904
▁interp	-3905
▁launch	-3906
▁losing	-3907
▁palest	-3908
▁python	-3909
▁resign	-3910
▁script	-3911
▁submit	-3912
▁atheist	-3913
▁beliefs	-3914
▁complex	-3915
▁conduct	-3916
▁distrib	-3917
▁england	-3918
▁fashion	-3919
▁message	-3920
▁nigeria	-3921
▁respond	-3922
▁species	-3923
▁testing	-3924
▁tourist	-3925
▁trading	-3926
▁administ	-3927
▁agricult	-3928
▁approach	-3929
▁comments	-3930
▁commerce	-3931
▁equation	-3932
▁identify	-3933
▁invented	-3934
▁involved	-3935
▁literary	-3936
▁location	-3937
▁malaysia	-3938
▁relation	-3939
▁scholars	-3940
▁sleeping	-3941
▁symptoms	-3942
▁candidate	-3943
▁corporate	-3944
▁elections	-3945
▁emotional	-3946
▁followers	-3947
▁indonesia	-3948
▁completing	-3949
▁influenced	-3950
▁scientific	-3951
▁transition	-3952
▁significant	-3953
▁specifically	-3954
▁environmental	-3955
▁manufacturing	-3956
▁understanding	-3957
17	-3958
bl	-3959
hm	-3960
lb	-3961
ns	-3962
to	-3963
ato	-3964
cos	-3965
how	-3966
ili	-3967
rie	-3968
ros	-3969
yan	-3970
zer	-3971
▁gm	-3972
▁ja	-3973
▁na	-3974
▁ox	-3975
amin	-3976
arat	-3977
bles	-3978
cast	-3979
itar	-3980
ndra	-3981
oint	-3982
raid	-3983
rene	-3984
ties	-3985
▁amb	-3986
▁atm	-3987
▁bay	-3988
▁bjp	-3989
▁bri	-3990
▁dav	-3991
▁exe	-3992
▁gif	-3993
▁map	-3994
▁spo	-3995
▁sup	-3996
▁tro	-3997
ently	-3998
icted	-3999
orrow	-4000
rance	-4001
▁clos	-4002
▁dece	-4003
▁elig	-4004
▁epis	-4005
▁fasc	-4006
▁fuck	-4007
▁hous	-4008
▁huge	-4009
▁icse	-4010
▁lazy	-4011
▁lord	-4012
▁nare	-4013
▁paul	-4014
▁repl	-4015
▁swim	-4016
▁volt	-4017
▁wwii	-4018
antage	-4019
ediate	-4020
gorith	-4021
▁bangl	-4022
▁chest	-4023
▁false	-4024
▁funds	-4025
▁genoc	-4026
▁ghost	-4027
▁homes	-4028
▁mahar	-4029
▁match	-4030
▁mtech	-4031
▁noise	-4032
▁owner	-4033
▁quota	-4034
▁raise	-4035
▁spons	-4036
▁steel	-4037
▁wasnt	-4038
▁waste	-4039
▁actors	-4040
▁afraid	-4041
▁astron	-4042
▁battle	-4043
▁breath	-4044
▁delete	-4045
▁estate	-4046
▁integr	-4047
▁princi	-4048
▁safety	-4049
▁turned	-4050
▁angular	-4051
▁anybody	-4052
▁counter	-4053
▁deleted	-4054
▁easiest	-4055
▁harmful	-4056
▁introdu	-4057
▁islamic	-4058
▁largest	-4059
▁minutes	-4060
▁offered	-4061
▁results	-4062
▁therapy	-4063
▁breaking	-4064
▁catholic	-4065
▁congress	-4066
▁creative	-4067
▁database	-4068
▁messages	-4069
▁narendra	-4070
▁officers	-4071
▁strength	-4072
▁upcoming	-4073
▁visiting	-4074
▁computers	-4075
▁condition	-4076
▁democracy	-4077
▁depressed	-4078
▁direction	-4079
▁immediate	-4080
▁investing	-4081
▁businesses	-4082
▁confidence	-4083
▁discovered	-4084
▁revolution	-4085
▁electricity	-4086
▁undergraduate	-4087
70	-4088
dh	-4089
ja	-4090
ki	-4091
pu	-4092
rd	-4093
wh	-4094
yl	-4095
ara	-4096
ias	-4097
rew	-4098
sec	-4099
uto	-4100
▁cu	-4101
▁lu	-4102
▁mc	-4103
abil	-4104
ager	-4105
chen	-4106
ford	-4107
hern	-4108
just	-4109
lder	-4110
mers	-4111
olar	-4112
rics	-4113
sequ	-4114
year	-4115
▁bag	-4116
▁enf	-4117
▁fac	-4118
▁fet	-4119
▁fur	-4120
▁ine	-4121
▁jio	-4122
▁led	-4123
▁mir	-4124
▁mos	-4125
▁nav	-4126
▁rap	-4127
▁ric	-4128
▁veg	-4129
▁via	-4130
asion	-4131
cular	-4132
ening	-4133
erior	-4134
iment	-4135
inste	-4136
oying	-4137
▁alex	-4138
▁brex	-4139
▁cope	-4140
▁fifa	-4141
▁fill	-4142
▁fort	-4143
▁fuel	-4144
▁gift	-4145
▁goal	-4146
▁hide	-4147
▁luck	-4148
▁mail	-4149
▁mens	-4150
▁mich	-4151
▁nort	-4152
▁plus	-4153
▁poll	-4154
▁prem	-4155
▁rail	-4156
▁sout	-4157
▁spot	-4158
▁stor	-4159
▁upon	-4160
▁wire	-4161
idents	-4162
sembly	-4163
▁calls	-4164
▁cycle	-4165
▁decre	-4166
▁floor	-4167
▁fresh	-4168
▁integ	-4169
▁items	-4170
▁james	-4171
▁loved	-4172
▁mouth	-4173
▁relev	-4174
▁reven	-4175
▁shoot	-4176
▁tests	-4177
▁texas	-4178
▁urine	-4179
idering	-4180
pective	-4181
▁active	-4182
▁arabia	-4183
▁attend	-4184
▁banned	-4185
▁belief	-4186
▁depart	-4187
▁execut	-4188
▁ground	-4189
▁harass	-4190
▁mongol	-4191
▁prices	-4192
▁punish	-4193
▁refuge	-4194
▁saving	-4195
▁senior	-4196
▁spirit	-4197
▁spread	-4198
▁taught	-4199
▁worlds	-4200
▁writer	-4201
▁advance	-4202
▁affairs	-4203
▁anymore	-4204
▁blocked	-4205
▁chicken	-4206
▁comment	-4207
▁conflic	-4208
▁feature	-4209
▁finding	-4210
▁hillary	-4211
▁joining	-4212
▁passion	-4213
▁protein	-4214
▁recipes	-4215
▁reduced	-4216
▁reprodu	-4217
▁section	-4218
▁smoking	-4219
▁station	-4220
▁surface	-4221
▁twitter	-4222
▁vehicle	-4223
▁witness	-4224
▁younger	-4225
▁activity	-4226
▁affected	-4227
▁algorith	-4228
▁canadian	-4229
▁creating	-4230
▁distingu	-4231
▁employer	-4232
▁followed	-4233
▁identity	-4234
▁official	-4235
▁opposite	-4236
▁possibly	-4237
▁purchase	-4238
▁selected	-4239
▁superior	-4240
▁supposed	-4241
▁theories	-4242
▁attracted	-4243
▁discrimin	-4244
▁existence	-4245
▁pakistani	-4246
▁practical	-4247
▁pregnancy	-4248
▁sociopath	-4249
▁traveling	-4250
▁wordpress	-4251
▁electronic	-4252
▁eventually	-4253
▁graduation	-4254
▁historical	-4255
▁motivation	-4256
▁processing	-4257
▁afghanistan	-4258
▁alternative	-4259
▁considering	-4260
▁effectively	-4261
▁immediately	-4262
▁psychopaths	-4263
▁transgender	-4264
▁alternatives	-4265
▁automatically	-4266
21	-4267
25	-4268
ey	-4269
mc	-4270
vt	-4271
ati	-4272
bel	-4273
bra	-4274
gpa	-4275
tml	-4276
▁ax	-4277
▁mp	-4278
▁mr	-4279
▁ug	-4280
brit	-4281
eria	-4282
iers	-4283
iser	-4284
ocol	-4285
opal	-4286
oura	-4287
play	-4288
rier	-4289
▁ble	-4290
▁cau	-4291
▁dry	-4292
▁ios	-4293
▁jam	-4294
▁jer	-4295
▁kur	-4296
▁nad	-4297
▁nic	-4298
▁php	-4299
▁ren	-4300
aging	-4301
ately	-4302
books	-4303
enses	-4304
iance	-4305
idden	-4306
orial	-4307
▁anti	-4308
▁bran	-4309
▁chap	-4310
▁cogn	-4311
▁debt	-4312
▁drag	-4313
▁flag	-4314
▁gala	-4315
▁gods	-4316
▁hang	-4317
▁html	-4318
▁isis	-4319
▁jail	-4320
▁mine	-4321
▁plot	-4322
▁pump	-4323
▁rein	-4324
▁rice	-4325
▁shar	-4326
▁syll	-4327
▁synd	-4328
▁tour	-4329
▁trig	-4330
▁virt	-4331
▁weed	-4332
ertain	-4333
isions	-4334
olkata	-4335
vision	-4336
▁banks	-4337
▁blame	-4338
▁blogs	-4339
▁chlor	-4340
▁cream	-4341
▁dance	-4342
▁drugs	-4343
▁foods	-4344
▁funny	-4345
▁habit	-4346
▁helps	-4347
▁hypoc	-4348
▁italy	-4349
▁keeps	-4350
▁loves	-4351
▁proud	-4352
▁sever	-4353
▁strug	-4354
▁title	-4355
▁toler	-4356
▁tough	-4357
▁virus	-4358
▁waves	-4359
▁wrest	-4360
brities	-4361
reprene	-4362
stances	-4363
▁behavi	-4364
▁brands	-4365
▁brexit	-4366
▁centre	-4367
▁cigare	-4368
▁couple	-4369
▁expand	-4370
▁extent	-4371
▁figure	-4372
▁forget	-4373
▁helped	-4374
▁kerala	-4375
▁linked	-4376
▁mexico	-4377
▁motion	-4378
▁owners	-4379
▁played	-4380
▁severe	-4381
▁sweden	-4382
▁update	-4383
▁visual	-4384
▁winter	-4385
▁wonder	-4386
▁amazing	-4387
▁article	-4388
▁assault	-4389
▁clients	-4390
▁concent	-4391
▁divorce	-4392
▁drivers	-4393
▁earning	-4394
▁element	-4395
▁helpful	-4396
▁highest	-4397
▁limited	-4398
▁opening	-4399
▁package	-4400
▁publish	-4401
▁release	-4402
▁reviews	-4403
▁sending	-4404
▁strateg	-4405
▁telling	-4406
▁typical	-4407
▁willing	-4408
▁writers	-4409
▁currency	-4410
▁customer	-4411
▁decrease	-4412
▁domestic	-4413
▁eligible	-4414
▁entrance	-4415
▁hydrogen	-4416
▁internal	-4417
▁medicine	-4418
▁particip	-4419
▁passport	-4420
▁rejected	-4421
▁released	-4422
▁snapchat	-4423
▁syndrome	-4424
▁whatsapp	-4425
▁whenever	-4426
▁analytics	-4427
▁beginners	-4428
▁beginning	-4429
▁feminists	-4430
▁materials	-4431
▁mechanism	-4432
▁published	-4433
▁automation	-4434
▁industrial	-4435
▁personally	-4436
▁propaganda	-4437
▁supporters	-4438
▁washington	-4439
▁advertising	-4440
▁celebrities	-4441
▁opportunity	-4442
▁politicians	-4443
▁scholarship	-4444
▁consideration	-4445
asp	-4446
bet	-4447
box	-4448
cal	-4449
cet	-4450
cks	-4451
gar	-4452
ida	-4453
iit	-4454
ito	-4455
lig	-4456
nes	-4457
ony	-4458
oon	-4459
sis	-4460
the	-4461
ums	-4462
une	-4463
vil	-4464
▁35	-4465
▁80	-4466
▁bs	-4467
▁hd	-4468
berg	-4469
cher	-4470
dule	-4471
ened	-4472
lors	-4473
onic	-4474
sing	-4475
wing	-4476
▁bip	-4477
▁boo	-4478
▁cgl	-4479
▁cro	-4480
▁fle	-4481
▁gap	-4482
▁gur	-4483
▁iim	-4484
▁kim	-4485
▁kne	-4486
▁ord	-4487
▁pig	-4488
▁sac	-4489
aling	-4490
ament	-4491
erson	-4492
heast	-4493
ially	-4494
iency	-4495
under	-4496
▁2000	-4497
▁2019	-4498
▁acqu	-4499
▁atom	-4500
▁auto	-4501
▁beam	-4502
▁boss	-4503
▁chat	-4504
▁club	-4505
▁core	-4506
▁decl	-4507
▁died	-4508
▁dies	-4509
▁dual	-4510
▁fans	-4511
▁flow	-4512
▁kick	-4513
▁lies	-4514
▁lots	-4515
▁push	-4516
▁sale	-4517
▁shad	-4518
▁sikh	-4519
▁stam	-4520
▁suit	-4521
▁thin	-4522
▁uber	-4523
▁zeal	-4524
ortion	-4525
otechn	-4526
▁agent	-4527
▁aiims	-4528
▁antis	-4529
▁broke	-4530
▁circu	-4531
▁cloth	-4532
▁cloud	-4533
▁essay	-4534
▁feels	-4535
▁fraud	-4536
▁honey	-4537
▁hyper	-4538
▁irish	-4539
▁kinds	-4540
▁magic	-4541
▁phase	-4542
▁pilot	-4543
▁posts	-4544
▁prime	-4545
▁rifle	-4546
▁satis	-4547
▁stops	-4548
▁tired	-4549
ascript	-4550
ensions	-4551
instein	-4552
osition	-4553
versity	-4554
▁arrest	-4555
▁asians	-4556
▁assume	-4557
▁boards	-4558
▁border	-4559
▁broken	-4560
▁claims	-4561
▁forgot	-4562
▁franch	-4563
▁guitar	-4564
▁hatred	-4565
▁honest	-4566
▁indias	-4567
▁insult	-4568
▁liquid	-4569
▁mutual	-4570
▁passed	-4571
▁physic	-4572
▁reserv	-4573
▁sample	-4574
▁spring	-4575
▁starts	-4576
▁stocks	-4577
▁syllab	-4578
▁academy	-4579
▁actions	-4580
▁appears	-4581
▁banking	-4582
▁corrupt	-4583
▁diploma	-4584
▁females	-4585
▁forever	-4586
▁forward	-4587
▁germans	-4588
▁illness	-4589
▁include	-4590
▁install	-4591
▁jackson	-4592
▁kolkata	-4593
▁measure	-4594
▁neutral	-4595
▁players	-4596
▁predict	-4597
▁putting	-4598
▁quorans	-4599
▁secular	-4600
▁several	-4601
▁turning	-4602
▁workout	-4603
▁zealand	-4604
▁annoying	-4605
▁baseball	-4606
▁conflict	-4607
▁creation	-4608
▁cultures	-4609
▁elements	-4610
▁fighting	-4611
▁friendly	-4612
▁genocide	-4613
▁hospital	-4614
▁improved	-4615
▁invasion	-4616
▁minority	-4617
▁opinions	-4618
▁palestin	-4619
▁patients	-4620
▁properly	-4621
▁rational	-4622
▁russians	-4623
▁semester	-4624
▁suitable	-4625
▁teaching	-4626
▁bollywood	-4627
▁celebrity	-4628
▁designing	-4629
▁everybody	-4630
▁hollywood	-4631
▁professor	-4632
▁reference	-4633
▁suffering	-4634
▁affordable	-4635
▁democratic	-4636
▁entreprene	-4637
▁scientists	-4638
▁underrated	-4639
▁photography	-4640
▁independence	-4641
▁requirements	-4642
▁technologies	-4643
30	-4644
80	-4645
af	-4646
dy	-4647
js	-4648
ni	-4649
oh	-4650
pi	-4651
tr	-4652
ada	-4653
alu	-4654
dra	-4655
gia	-4656
hum	-4657
iny	-4658
izz	-4659
jab	-4660
ott	-4661
pet	-4662
rad	-4663
vin	-4664
▁45	-4665
▁70	-4666
▁hr	-4667
▁iv	-4668
▁kh	-4669
▁ul	-4670
ands	-4671
anes	-4672
ania	-4673
asht	-4674
cket	-4675
cons	-4676
hold	-4677
iant	-4678
irty	-4679
omen	-4680
reci	-4681
rote	-4682
uran	-4683
uted	-4684
▁aud	-4685
▁era	-4686
▁gri	-4687
▁gro	-4688
▁mig	-4689
▁nag	-4690
▁rat	-4691
▁seo	-4692
▁tai	-4693
▁tan	-4694
▁tcs	-4695
▁unc	-4696
▁vag	-4697
arily	-4698
build	-4699
celer	-4700
chain	-4701
cules	-4702
ordon	-4703
paign	-4704
▁asks	-4705
▁bott	-4706
▁butt	-4707
▁cgpa	-4708
▁clin	-4709
▁cure	-4710
▁defe	-4711
▁diss	-4712
▁enem	-4713
▁excl	-4714
▁fant	-4715
▁fict	-4716
▁figh	-4717
▁gave	-4718
▁govt	-4719
▁hunt	-4720
▁inde	-4721
▁iraq	-4722
▁jose	-4723
▁kiss	-4724
▁lakh	-4725
▁lung	-4726
▁navy	-4727
▁nazi	-4728
▁pant	-4729
▁poem	-4730
▁pure	-4731
▁rene	-4732
▁roll	-4733
▁sequ	-4734
▁sort	-4735
▁tank	-4736
▁vacc	-4737
▁wine	-4738
▁wise	-4739
enders	-4740
ternal	-4741
▁added	-4742
▁adopt	-4743
▁angle	-4744
▁argum	-4745
▁award	-4746
▁birds	-4747
▁capac	-4748
▁caste	-4749
▁click	-4750
▁cruel	-4751
▁david	-4752
▁dying	-4753
▁error	-4754
▁facil	-4755
▁faith	-4756
▁files	-4757
▁fixed	-4758
▁impos	-4759
▁infra	-4760
▁intro	-4761
▁irrit	-4762
▁labor	-4763
▁malay	-4764
▁rates	-4765
▁ready	-4766
▁royal	-4767
▁stick	-4768
▁subsc	-4769
▁tells	-4770
▁throw	-4771
▁tooth	-4772
▁wrote	-4773
chester	-4774
eration	-4775
ologist	-4776
▁adjust	-4777
▁adults	-4778
▁alumin	-4779
▁artist	-4780
▁assass	-4781
▁basket	-4782
▁cancel	-4783
▁confir	-4784
▁decent	-4785
▁depend	-4786
▁explan	-4787
▁failed	-4788
▁fields	-4789
▁finger	-4790
▁finish	-4791
▁flying	-4792
▁gaming	-4793
▁golden	-4794
▁gordon	-4795
▁grades	-4796
▁hidden	-4797
▁highly	-4798
▁hiring	-4799
▁ignore	-4800
▁images	-4801
▁marvel	-4802
▁medium	-4803
▁orange	-4804
▁overse	-4805
▁poison	-4806
▁racism	-4807
▁region	-4808
▁regret	-4809
▁server	-4810
▁theore	-4811
▁thinks	-4812
▁trends	-4813
▁yellow	-4814
inations	-4815
▁actress	-4816
▁attacks	-4817
▁brought	-4818
▁cameras	-4819
▁charges	-4820
▁clearly	-4821
▁decided	-4822
▁dislike	-4823
▁earlier	-4824
▁eastern	-4825
▁federal	-4826
▁fitness	-4827
▁journal	-4828
▁letters	-4829
▁manipal	-4830
▁missing	-4831
▁mistake	-4832
▁organiz	-4833
▁primary	-4834
▁promote	-4835
▁reflect	-4836
▁reverse	-4837
▁smarter	-4838
▁stopped	-4839
▁voltage	-4840
▁weather	-4841
▁worship	-4842
▁assembly	-4843
▁campaign	-4844
▁designed	-4845
▁designer	-4846
▁existing	-4847
▁included	-4848
▁keyboard	-4849
▁marrying	-4850
▁painting	-4851
▁romantic	-4852
▁settings	-4853
▁shopping	-4854
▁terrible	-4855
▁advantage	-4856
▁behaviour	-4857
▁concerned	-4858
▁destroyed	-4859
▁electrons	-4860
▁operation	-4861
▁standards	-4862
▁workplace	-4863
otechnology	-4864
▁associated	-4865
▁contribute	-4866
▁employment	-4867
▁friendship	-4868
▁javascript	-4869
▁operations	-4870
▁protection	-4871
▁smartphone	-4872
▁competitive	-4873
▁established	-4874
▁examination	-4875
▁experiences	-4876
▁immigration	-4877
▁probability	-4878
▁conversation	-4879
▁similarities	-4880
▁cryptocurrency	-4881
14	-4882
ax	-4883
vi	-4884
ael	-4885
ami	-4886
ext	-4887
iam	-4888
ils	-4889
imb	-4890
iri	-4891
jee	-4892
met	-4893
ost	-4894
pat	-4895
ras	-4896
reg	-4897
rog	-4898
uts	-4899
▁27	-4900
▁39	-4901
▁bc	-4902
▁ct	-4903
▁ee	-4904
▁nc	-4905
alin	-4906
anka	-4907
care	-4908
desh	-4909
eter	-4910
gram	-4911
idal	-4912
ilty	-4913
inct	-4914
irts	-4915
life	-4916
odes	-4917
rees	-4918
ront	-4919
rors	-4920
rupt	-4921
sial	-4922
stit	-4923
▁adm	-4924
▁alb	-4925
▁arr	-4926
▁ath	-4927
▁bpd	-4928
▁cel	-4929
▁dar	-4930
▁ded	-4931
▁haw	-4932
▁ire	-4933
▁jet	-4934
▁loo	-4935
▁pad	-4936
▁phr	-4937
▁saw	-4938
▁tea	-4939
▁tes	-4940
▁uns	-4941
▁wel	-4942
aches	-4943
adays	-4944
atell	-4945
attoo	-4946
ching	-4947
cious	-4948
grade	-4949
ipped	-4950
itals	-4951
itely	-4952
ocent	-4953
ounce	-4954
ruits	-4955
worth	-4956
▁bond	-4957
▁chic	-4958
▁dick	-4959
▁dict	-4960
▁duty	-4961
▁flav	-4962
▁flip	-4963
▁gear	-4964
▁harv	-4965
▁kong	-4966
▁legs	-4967
▁lgbt	-4968
▁libr	-4969
▁nurs	-4970
▁pier	-4971
▁pron	-4972
▁seek	-4973
▁stan	-4974
▁susp	-4975
▁took	-4976
charge	-4977
enture	-4978
idency	-4979
urally	-4980
▁atoms	-4981
▁brave	-4982
▁canon	-4983
▁chain	-4984
▁champ	-4985
▁chart	-4986
▁coins	-4987
▁conqu	-4988
▁dynam	-4989
▁effic	-4990
▁faced	-4991
▁films	-4992
▁genet	-4993
▁gmail	-4994
▁goods	-4995
▁heshe	-4996
▁ignor	-4997
▁input	-4998
▁jokes	-4999
▁linux	-5000
▁manga	-5001
▁murde	-5002
▁notes	-5003
▁paint	-5004
▁paytm	-5005
▁plane	-5006
▁putin	-5007
▁quran	-5008
▁regul	-5009
▁roles	-5010
▁saved	-5011
▁scale	-5012
▁scene	-5013
▁seats	-5014
▁shock	-5015
▁spain	-5016
▁stere	-5017
▁syria	-5018
▁therm	-5019
▁thous	-5020
▁tight	-5021
▁trave	-5022
▁twice	-5023
▁worry	-5024
iration	-5025
rencies	-5026
▁anyway	-5027
▁blacks	-5028
▁bodies	-5029
▁bought	-5030
▁camera	-5031
▁counse	-5032
▁dishes	-5033
▁domain	-5034
▁embarr	-5035
▁excess	-5036
▁format	-5037
▁former	-5038
▁george	-5039
▁homose	-5040
▁hostel	-5041
▁inject	-5042
▁leaves	-5043
▁mining	-5044
▁placed	-5045
▁recipe	-5046
▁robert	-5047
▁shares	-5048
▁sounds	-5049
▁taiwan	-5050
▁tattoo	-5051
▁temple	-5052
▁tempor	-5053
▁upload	-5054
▁victor	-5055
▁womens	-5056
▁acceler	-5057
▁airport	-5058
▁consequ	-5059
▁context	-5060
▁density	-5061
▁deposit	-5062
▁deserve	-5063
▁founded	-5064
▁funding	-5065
▁further	-5066
▁ireland	-5067
▁practic	-5068
▁sitting	-5069
▁storage	-5070
▁succeed	-5071
▁virtual	-5072
▁wanting	-5073
▁wealthy	-5074
▁william	-5075
▁branches	-5076
▁colonial	-5077
▁criteria	-5078
▁cultural	-5079
▁director	-5080
▁discover	-5081
▁managers	-5082
▁nowadays	-5083
▁obsessed	-5084
▁policies	-5085
▁register	-5086
▁relevant	-5087
▁resident	-5088
▁scenario	-5089
▁sciences	-5090
▁someones	-5091
▁syllabus	-5092
▁teenager	-5093
▁transact	-5094
▁vacation	-5095
▁addiction	-5096
▁affecting	-5097
▁anonymous	-5098
▁assistant	-5099
▁bachelors	-5100
▁banglades	-5101
▁classical	-5102
▁copyright	-5103
▁disappear	-5104
▁documents	-5105
▁fictional	-5106
▁intellect	-5107
▁interpret	-5108
▁mechanics	-5109
▁particles	-5110
▁scientist	-5111
▁terrorism	-5112
▁australian	-5113
▁blockchain	-5114
▁components	-5115
▁foreigners	-5116
▁impossible	-5117
▁meditation	-5118
▁philosophy	-5119
▁politician	-5120
▁registered	-5121
▁resistance	-5122
▁television	-5123
▁differently	-5124
▁emotionally	-5125
▁certification	-5126
▁circumstances	-5127
bc	-5128
kn	-5129
nu	-5130
agn	-5131
aps	-5132
apt	-5133
col	-5134
eer	-5135
gun	-5136
iat	-5137
ked	-5138
mas	-5139
oic	-5140
oll	-5141
see	-5142
▁gd	-5143
▁hp	-5144
▁kg	-5145
▁uc	-5146
abul	-5147
aked	-5148
amed	-5149
anta	-5150
aped	-5151
aper	-5152
athy	-5153
bric	-5154
cope	-5155
greg	-5156
iday	-5157
lers	-5158
opia	-5159
pass	-5160
rian	-5161
ston	-5162
ulum	-5163
▁bds	-5164
▁bio	-5165
▁cas	-5166
▁dna	-5167
▁fer	-5168
▁flo	-5169
▁inj	-5170
▁mam	-5171
▁moo	-5172
▁nda	-5173
▁oce	-5174
▁rah	-5175
▁rod	-5176
▁scr	-5177
▁sib	-5178
▁sri	-5179
▁sue	-5180
▁tay	-5181
▁toy	-5182
▁uae	-5183
▁usd	-5184
▁yog	-5185
ables	-5186
ading	-5187
andon	-5188
enger	-5189
field	-5190
inate	-5191
iting	-5192
paper	-5193
ppers	-5194
▁alph	-5195
▁arms	-5196
▁bath	-5197
▁beef	-5198
▁bone	-5199
▁cris	-5200
▁crow	-5201
▁dish	-5202
▁ecom	-5203
▁elon	-5204
▁furn	-5205
▁gang	-5206
▁heav	-5207
▁hong	-5208
▁knew	-5209
▁lone	-5210
▁mock	-5211
▁musk	-5212
▁pray	-5213
▁rupe	-5214
▁scam	-5215
▁ship	-5216
▁snow	-5217
▁solo	-5218
ashtra	-5219
stream	-5220
▁advis	-5221
▁allah	-5222
▁audio	-5223
▁breed	-5224
▁broad	-5225
▁catal	-5226
▁chess	-5227
▁creep	-5228
▁demon	-5229
▁dutch	-5230
▁firms	-5231
▁flash	-5232
▁franc	-5233
▁freel	-5234
▁ideal	-5235
▁inner	-5236
▁juice	-5237
▁knows	-5238
▁latin	-5239
▁links	-5240
▁mixed	-5241
▁paral	-5242
▁plans	-5243
▁polar	-5244
▁presc	-5245
▁recon	-5246
▁remed	-5247
▁reply	-5248
▁shape	-5249
▁simpl	-5250
▁skill	-5251
▁slave	-5252
▁spect	-5253
▁stone	-5254
▁surve	-5255
▁tesla	-5256
▁theme	-5257
▁toile	-5258
▁turks	-5259
▁vegan	-5260
▁weigh	-5261
▁youth	-5262
abulary	-5263
igation	-5264
istical	-5265
versial	-5266
working	-5267
▁behave	-5268
▁beings	-5269
▁boring	-5270
▁boxing	-5271
▁colors	-5272
▁diabet	-5273
▁dollar	-5274
▁fabric	-5275
▁galaxy	-5276
▁guilty	-5277
▁harder	-5278
▁jaipur	-5279
▁lawyer	-5280
▁linear	-5281
▁miller	-5282
▁models	-5283
▁neural	-5284
▁poland	-5285
▁powers	-5286
▁quotes	-5287
▁retire	-5288
▁satell	-5289
▁scored	-5290
▁serial	-5291
▁settle	-5292
▁shadow	-5293
▁signal	-5294
▁spouse	-5295
▁suffer	-5296
▁territ	-5297
▁themes	-5298
▁toront	-5299
▁unable	-5300
▁whites	-5301
▁worked	-5302
orcement	-5303
▁abandon	-5304
▁bipolar	-5305
▁capable	-5306
▁cheated	-5307
▁climate	-5308
▁complic	-5309
▁compuls	-5310
▁display	-5311
▁encoura	-5312
▁factory	-5313
▁forgive	-5314
▁impress	-5315
▁initial	-5316
▁justice	-5317
▁kingdom	-5318
▁lawyers	-5319
▁motorcy	-5320
▁obvious	-5321
▁organic	-5322
▁parties	-5323
▁passing	-5324
▁pradesh	-5325
▁records	-5326
▁removed	-5327
▁request	-5328
▁routine	-5329
▁sharing	-5330
▁smaller	-5331
▁solving	-5332
▁stephen	-5333
▁violent	-5334
▁vitamin	-5335
▁worried	-5336
istically	-5337
▁airlines	-5338
▁articles	-5339
▁attitude	-5340
▁birthday	-5341
▁cheapest	-5342
▁choosing	-5343
▁inferior	-5344
▁lifetime	-5345
▁overseas	-5346
▁provided	-5347
▁provides	-5348
▁received	-5349
▁resource	-5350
▁response	-5351
▁socially	-5352
▁soldiers	-5353
▁superman	-5354
▁tomorrow	-5355
▁variable	-5356
▁algorithm	-5357
▁apartment	-5358
▁childhood	-5359
▁communist	-5360
▁entertain	-5361
▁franchise	-5362
▁frequency	-5363
▁happiness	-5364
▁molecules	-5365
▁operating	-5366
▁qualified	-5367
▁recognize	-5368
▁seriously	-5369
▁solutions	-5370
▁therapist	-5371
▁undergrad	-5372
▁accounting	-5373
▁dimensions	-5374
▁experiment	-5375
▁increasing	-5376
▁percentile	-5377
▁profession	-5378
▁republican	-5379
▁vegetarian	-5380
▁vocabulary	-5381
▁comfortable	-5382
▁educational	-5383
▁explanation	-5384
▁maharashtra	-5385
▁permanently	-5386
▁perspective	-5387
▁agricultural	-5388
▁mathematical	-5389
▁neighborhood	-5390
▁organisation	-5391
▁presentation	-5392
▁successfully	-5393
▁biotechnology	-5394
▁differentiate	-5395
12	-5396
cd	-5397
fa	-5398
nc	-5399
rt	-5400
aff	-5401
any	-5402
ena	-5403
enn	-5404
fit	-5405
gue	-5406
ief	-5407
iju	-5408
ita	-5409
jun	-5410
lls	-5411
now	-5412
obe	-5413
oly	-5414
ops	-5415
rem	-5416
rer	-5417
tic	-5418
top	-5419
ubs	-5420
ugu	-5421
▁34	-5422
▁75	-5423
▁ay	-5424
▁az	-5425
▁bf	-5426
▁cc	-5427
▁gh	-5428
▁ml	-5429
▁pd	-5430
▁ts	-5431
▁vp	-5432
anna	-5433
arts	-5434
born	-5435
cell	-5436
cest	-5437
cipl	-5438
fare	-5439
gage	-5440
girl	-5441
iler	-5442
isco	-5443
izes	-5444
lock	-5445
mark	-5446
ocad	-5447
olen	-5448
oler	-5449
omed	-5450
rant	-5451
rete	-5452
roph	-5453
ttes	-5454
yond	-5455
▁911	-5456
▁bor	-5457
▁dos	-5458
▁ens	-5459
▁guj	-5460
▁idi	-5461
▁kil	-5462
▁lou	-5463
▁lux	-5464
▁mas	-5465
▁mes	-5466
▁osc	-5467
▁pow	-5468
▁raw	-5469
▁rub	-5470
▁shy	-5471
▁sna	-5472
▁spy	-5473
▁sql	-5474
▁upv	-5475
▁vel	-5476
▁vot	-5477
▁wik	-5478
anted	-5479
berry	-5480
bling	-5481
eness	-5482
erved	-5483
hetic	-5484
icial	-5485
iders	-5486
ieval	-5487
itors	-5488
iving	-5489
merce	-5490
obile	-5491
ormal	-5492
ourse	-5493
stain	-5494
tical	-5495
usion	-5496
verty	-5497
▁2015	-5498
▁bare	-5499
▁boat	-5500
▁desk	-5501
▁dial	-5502
▁dram	-5503
▁edge	-5504
▁empt	-5505
▁flex	-5506
▁flor	-5507
▁font	-5508
▁hope	-5509
▁joke	-5510
▁june	-5511
▁lect	-5512
▁lens	-5513
▁loud	-5514
▁mans	-5515
▁meal	-5516
▁mild	-5517
▁mood	-5518
▁nasa	-5519
▁pian	-5520
▁pull	-5521
▁scan	-5522
▁seed	-5523
▁shiv	-5524
▁spin	-5525
▁tact	-5526
▁thor	-5527
▁trek	-5528
▁unre	-5529
encies	-5530
ijuana	-5531
ipping	-5532
orders	-5533
ounder	-5534
tering	-5535
▁10000	-5536
▁adapt	-5537
▁allen	-5538
▁april	-5539
▁armed	-5540
▁aspir	-5541
▁boost	-5542
▁cardi	-5543
▁drunk	-5544
▁flame	-5545
▁frank	-5546
▁guide	-5547
▁heads	-5548
▁holoc	-5549
▁horse	-5550
▁illeg	-5551
▁jeans	-5552
▁laugh	-5553
▁leads	-5554
▁legit	-5555
▁lived	-5556
▁loyal	-5557
▁march	-5558
▁merch	-5559
▁merit	-5560
▁moved	-5561
▁nazis	-5562
▁parag	-5563
▁patri	-5564
▁persu	-5565
▁popul	-5566
▁puppy	-5567
▁queen	-5568
▁risks	-5569
▁route	-5570
▁shown	-5571
▁stars	-5572
▁steam	-5573
▁teams	-5574
▁thick	-5575
▁trees	-5576
▁trend	-5577
▁truck	-5578
▁upset	-5579
ometric	-5580
utation	-5581
▁aliens	-5582
▁ancest	-5583
▁autism	-5584
▁barack	-5585
▁beauty	-5586
▁beyond	-5587
▁caught	-5588
▁chicag	-5589
▁circle	-5590
▁crisis	-5591
▁defend	-5592
▁effort	-5593
▁emails	-5594
▁fantas	-5595
▁forest	-5596
▁formal	-5597
▁fruits	-5598
▁island	-5599
▁joseph	-5600
▁kidney	-5601
▁lesser	-5602
▁lowest	-5603
▁martin	-5604
▁naruto	-5605
▁nutrit	-5606
▁offers	-5607
▁pieces	-5608
▁posted	-5609
▁pretty	-5610
▁punjab	-5611
▁rajast	-5612
▁reform	-5613
▁refuse	-5614
▁societ	-5615
▁stolen	-5616
▁strang	-5617
▁studio	-5618
▁taller	-5619
▁theres	-5620
▁typing	-5621
▁valley	-5622
▁victim	-5623
▁viewed	-5624
▁airline	-5625
▁analyst	-5626
▁aspects	-5627
▁breakup	-5628
▁cheaper	-5629
▁convent	-5630
▁dealing	-5631
▁degrees	-5632
▁dentist	-5633
▁describ	-5634
▁falling	-5635
▁flowers	-5636
▁greater	-5637
▁hearing	-5638
▁housing	-5639
▁intoler	-5640
▁license	-5641
▁meeting	-5642
▁nursing	-5643
▁patient	-5644
▁plastic	-5645
▁poverty	-5646
▁richest	-5647
▁slavery	-5648
▁somehow	-5649
▁staying	-5650
▁supreme	-5651
▁sustain	-5652
▁teenage	-5653
▁tension	-5654
▁toronto	-5655
▁visible	-5656
▁walking	-5657
▁watched	-5658
▁abortion	-5659
▁attached	-5660
▁brothers	-5661
▁channels	-5662
▁charging	-5663
▁cleaning	-5664
▁concepts	-5665
▁hinduism	-5666
▁humanity	-5667
▁husbands	-5668
▁medieval	-5669
▁minister	-5670
▁networks	-5671
▁partners	-5672
▁pharmacy	-5673
▁schedule	-5674
▁standing	-5675
▁suicidal	-5676
▁swimming	-5677
▁weekends	-5678
▁weirdest	-5679
ifications	-5680
▁accepting	-5681
▁advertise	-5682
▁champions	-5683
▁committed	-5684
▁compounds	-5685
▁connected	-5686
▁converted	-5687
▁criminals	-5688
▁diversity	-5689
▁embarrass	-5690
▁executive	-5691
▁formation	-5692
▁increased	-5693
▁infection	-5694
▁interests	-5695
▁marijuana	-5696
▁mentioned	-5697
▁motivated	-5698
▁platforms	-5699
▁processor	-5700
▁reporting	-5701
▁sensitive	-5702
▁technique	-5703
▁automobile	-5704
▁bangladesh	-5705
▁basketball	-5706
▁cigarettes	-5707
▁consultant	-5708
▁department	-5709
▁efficiency	-5710
▁facilities	-5711
▁industries	-5712
▁permission	-5713
▁reasonable	-5714
▁strategies	-5715
▁throughout	-5716
▁communities	-5717
▁competition	-5718
▁indonesians	-5719
▁manufacture	-5720
▁narcissists	-5721
▁possibility	-5722
▁reservation	-5723
▁suggestions	-5724
▁traditional	-5725
▁entrepreneur	-5726
▁evolutionary	-5727
▁registration	-5728
▁controversial	-5729
▁psychological	-5730
19	-5731
22	-5732
40	-5733
gt	-5734
gu	-5735
hd	-5736
nb	-5737
sp	-5738
sq	-5739
ti	-5740
uk	-5741
vp	-5742
zz	-5743
bec	-5744
boy	-5745
hab	-5746
hob	-5747
ike	-5748
jac	-5749
kal	-5750
lab	-5751
lax	-5752
nel	-5753
och	-5754
ora	-5755
pan	-5756
sex	-5757
tra	-5758
uct	-5759
ura	-5760
▁28	-5761
▁99	-5762
▁ak	-5763
▁cd	-5764
▁dj	-5765
▁eb	-5766
▁ji	-5767
▁km	-5768
▁ns	-5769
▁ub	-5770
▁xi	-5771
aire	-5772
anol	-5773
arin	-5774
asty	-5775
aton	-5776
aust	-5777
bour	-5778
ccer	-5779
emit	-5780
flix	-5781
gaon	-5782
hers	-5783
iana	-5784
icit	-5785
icon	-5786
imal	-5787
iner	-5788
isms	-5789
made	-5790
olve	-5791
omer	-5792
outs	-5793
pool	-5794
rish	-5795
ture	-5796
umps	-5797
what	-5798
wide	-5799
writ	-5800
▁awk	-5801
▁beg	-5802
▁bic	-5803
▁bts	-5804
▁cia	-5805
▁din	-5806
▁enh	-5807
▁esc	-5808
▁fox	-5809
▁gig	-5810
▁han	-5811
▁hen	-5812
▁ipl	-5813
▁jim	-5814
▁kal	-5815
▁lag	-5816
▁les	-5817
▁llb	-5818
▁luc	-5819
▁mun	-5820
▁nra	-5821
▁nyc	-5822
▁pin	-5823
▁rab	-5824
▁sab	-5825
▁sor	-5826
▁tip	-5827
▁tum	-5828
▁tut	-5829
▁wis	-5830
aires	-5831
alous	-5832
break	-5833
eding	-5834
eline	-5835
gredi	-5836
iform	-5837
ilies	-5838
inity	-5839
iture	-5840
kemon	-5841
night	-5842
ophob	-5843
quito	-5844
rolog	-5845
sters	-5846
ville	-5847
▁acts	-5848
▁airb	-5849
▁alle	-5850
▁arri	-5851
▁blow	-5852
▁boot	-5853
▁cens	-5854
▁cube	-5855
▁gall	-5856
▁gard	-5857
▁hung	-5858
▁icon	-5859
▁impl	-5860
▁inse	-5861
▁kann	-5862
▁kiit	-5863
▁lady	-5864
▁logo	-5865
▁mile	-5866
▁mont	-5867
▁nerv	-5868
▁onto	-5869
▁outd	-5870
▁pand	-5871
▁peak	-5872
▁phen	-5873
▁pill	-5874
▁pink	-5875
▁prec	-5876
▁rare	-5877
▁refe	-5878
▁rome	-5879
▁sarc	-5880
▁scar	-5881
▁sess	-5882
▁sexy	-5883
▁shes	-5884
▁soil	-5885
▁soul	-5886
▁spac	-5887
▁stem	-5888
▁ster	-5889
▁subt	-5890
▁tort	-5891
▁util	-5892
▁valu	-5893
▁vice	-5894
▁vish	-5895
▁wing	-5896
▁zone	-5897
americ	-5898
arians	-5899
bridge	-5900
cience	-5901
ington	-5902
ipment	-5903
lation	-5904
ometer	-5905
ployed	-5906
struct	-5907
▁alter	-5908
▁amend	-5909
▁aside	-5910
▁batch	-5911
▁bonds	-5912
▁bored	-5913
▁bread	-5914
▁buddh	-5915
▁chair	-5916
▁cheat	-5917
▁coast	-5918
▁crash	-5919
▁debit	-5920
▁delay	-5921
▁dirty	-5922
▁evalu	-5923
▁fruit	-5924
▁jewel	-5925
▁lying	-5926
▁magaz	-5927
▁males	-5928
▁memor	-5929
▁moves	-5930
▁neuro	-5931
▁penal	-5932
▁poems	-5933
▁pride	-5934
▁prize	-5935
▁repla	-5936
▁shift	-5937
▁shirt	-5938
▁singh	-5939
▁steal	-5940
▁stret	-5941
▁surge	-5942
▁teens	-5943
▁theat	-5944
▁tiger	-5945
▁troll	-5946
▁turns	-5947
▁upper	-5948
▁urban	-5949
cipline	-5950
inating	-5951
itarian	-5952
oration	-5953
yearold	-5954
▁accent	-5955
▁agency	-5956
▁apolog	-5957
▁arabic	-5958
▁bhopal	-5959
▁bottom	-5960
▁bullet	-5961
▁butter	-5962
▁closed	-5963
▁columb	-5964
▁comedk	-5965
▁debate	-5966
▁digest	-5967
▁disney	-5968
▁ending	-5969
▁equity	-5970
▁exists	-5971
▁facial	-5972
▁fought	-5973
▁hisher	-5974
▁levels	-5975
▁looked	-5976
▁lyrics	-5977
▁planes	-5978
▁repeat	-5979
▁sacrif	-5980
▁satisf	-5981
▁signed	-5982
▁silver	-5983
▁slowly	-5984
▁soccer	-5985
▁superp	-5986
▁toilet	-5987
▁triple	-5988
ensation	-5989
ications	-5990
ographic	-5991
▁accused	-5992
▁amounts	-5993
▁appreci	-5994
▁artists	-5995
▁awkward	-5996
▁breasts	-5997
▁causing	-5998
▁circuit	-5999
▁claimed	-6000
▁confess	-6001
▁covered	-6002
▁damaged	-6003
▁drawing	-6004
▁editing	-6005
▁episode	-6006
▁fighter	-6007
▁finally	-6008
▁florida	-6009
▁helping	-6010
▁holding	-6011
▁hurting	-6012
▁ingredi	-6013
▁kitchen	-6014
▁laptops	-6015
▁learned	-6016
▁letting	-6017
▁library	-6018
▁located	-6019
▁martial	-6020
▁massive	-6021
▁michael	-6022
▁monthly	-6023
▁nervous	-6024
▁netflix	-6025
▁nucleus	-6026
▁opposed	-6027
▁outcome	-6028
▁planets	-6029
▁pokemon	-6030
▁radical	-6031
▁railway	-6032
▁ranking	-6033
▁reports	-6034
▁romance	-6035
▁scratch	-6036
▁selfish	-6037
▁strange	-6038
▁tickets	-6039
▁uniform	-6040
▁withdra	-6041
abilities	-6042
▁achieved	-6043
▁addicted	-6044
▁beginner	-6045
▁clothing	-6046
▁compound	-6047
▁concrete	-6048
▁december	-6049
▁discount	-6050
▁educated	-6051
▁equality	-6052
▁external	-6053
▁freshers	-6054
▁graphics	-6055
▁hardware	-6056
▁indirect	-6057
▁infinite	-6058
▁infinity	-6059
▁interior	-6060
▁memories	-6061
▁millions	-6062
▁optional	-6063
▁ordinary	-6064
▁particle	-6065
▁patterns	-6066
▁psychiat	-6067
▁responsi	-6068
▁secretly	-6069
▁separate	-6070
▁southern	-6071
▁speakers	-6072
▁stereoty	-6073
▁struggle	-6074
▁survival	-6075
▁vehicles	-6076
▁basically	-6077
▁celebrate	-6078
▁certified	-6079
▁cognitive	-6080
▁completed	-6081
▁confident	-6082
▁container	-6083
▁daughters	-6084
▁diagnosed	-6085
▁ecommerce	-6086
▁ethnicity	-6087
▁improving	-6088
▁investors	-6089
▁involving	-6090
▁mandatory	-6091
▁naturally	-6092
▁newspaper	-6093
▁overrated	-6094
▁practices	-6095
▁prospects	-6096
▁qualities	-6097
▁religions	-6098
▁satellite	-6099
▁secondary	-6100
▁selection	-6101
▁shortterm	-6102
▁strangest	-6103
▁thousands	-6104
▁travelers	-6105
▁biological	-6106
▁compulsory	-6107
▁conditions	-6108
▁consulting	-6109
▁harassment	-6110
▁manchester	-6111
▁programmer	-6112
▁properties	-6113
▁punishment	-6114
▁recognized	-6115
▁supporting	-6116
▁vietnamese	-6117
▁consumption	-6118
▁counselling	-6119
▁improvement	-6120
▁investments	-6121
▁participate	-6122
▁recognition	-6123
▁recruitment	-6124
▁restaurants	-6125
▁translation	-6126
▁consequences	-6127
▁distribution	-6128
▁manufactured	-6129
▁palestinians	-6130
▁organizations	-6131
24	-6132
35	-6133
aj	-6134
dr	-6135
gc	-6136
oe	-6137
ui	-6138
va	-6139
wl	-6140
yr	-6141
200	-6142
fra	-6143
hel	-6144
hem	-6145
ici	-6146
iff	-6147
ius	-6148
lel	-6149
mad	-6150
mun	-6151
net	-6152
oke	-6153
ovo	-6154
rah	-6155
ran	-6156
riv	-6157
sey	-6158
tte	-6159
uum	-6160
wed	-6161
wer	-6162
▁ah	-6163
▁da	-6164
▁dh	-6165
▁gy	-6166
▁ku	-6167
▁mm	-6168
▁os	-6169
▁um	-6170
acle	-6171
agar	-6172
aled	-6173
cule	-6174
dium	-6175
ener	-6176
fall	-6177
hent	-6178
illy	-6179
ints	-6180
iped	-6181
last	-6182
onda	-6183
oral	-6184
othe	-6185
ptic	-6186
roat	-6187
sile	-6188
sqrt	-6189
stig	-6190
tles	-6191
ttar	-6192
untu	-6193
well	-6194
xide	-6195
▁ash	-6196
▁ceo	-6197
▁cha	-6198
▁dal	-6199
▁egg	-6200
▁gal	-6201
▁goa	-6202
▁gpa	-6203
▁lee	-6204
▁lip	-6205
▁mol	-6206
▁mys	-6207
▁nba	-6208
▁org	-6209
▁pcm	-6210
▁pic	-6211
▁pim	-6212
▁poo	-6213
▁pul	-6214
▁roi	-6215
▁sap	-6216
▁sed	-6217
▁sid	-6218
▁ske	-6219
▁tab	-6220
▁tap	-6221
▁ton	-6222
▁tun	-6223
▁usc	-6224
▁vib	-6225
▁viv	-6226
antly	-6227
archy	-6228
chron	-6229
ented	-6230
gment	-6231
indra	-6232
inter	-6233
known	-6234
ocate	-6235
ograp	-6236
othet	-6237
otics	-6238
prise	-6239
raham	-6240
rious	-6241
uding	-6242
▁2010	-6243
▁abol	-6244
▁acne	-6245
▁adhd	-6246
▁alth	-6247
▁bear	-6248
▁bhag	-6249
▁bibl	-6250
▁bird	-6251
▁buff	-6252
▁deny	-6253
▁door	-6254
▁ears	-6255
▁ejac	-6256
▁elim	-6257
▁exit	-6258
▁firm	-6259
▁holy	-6260
▁horn	-6261
▁hybr	-6262
▁iits	-6263
▁impe	-6264
▁indu	-6265
▁ipad	-6266
▁isol	-6267
▁jord	-6268
▁lets	-6269
▁merc	-6270
▁mort	-6271
▁nove	-6272
▁orth	-6273
▁pets	-6274
▁proc	-6275
▁rely	-6276
▁rose	-6277
▁ryan	-6278
▁salt	-6279
▁sony	-6280
▁sunn	-6281
▁tong	-6282
▁unde	-6283
▁unem	-6284
▁vary	-6285
▁warm	-6286
▁wash	-6287
▁wave	-6288
ansion	-6289
arding	-6290
enance	-6291
isters	-6292
market	-6293
odynam	-6294
phones	-6295
rative	-6296
rishna	-6297
ructor	-6298
ushing	-6299
▁adobe	-6300
▁alien	-6301
▁antic	-6302
▁antim	-6303
▁badly	-6304
▁bihar	-6305
▁bonus	-6306
▁cabin	-6307
▁clubs	-6308
▁colum	-6309
▁costs	-6310
▁curve	-6311
▁devil	-6312
▁emper	-6313
▁empty	-6314
▁enemy	-6315
▁excel	-6316
▁genre	-6317
▁goals	-6318
▁greek	-6319
▁grown	-6320
▁incor	-6321
▁indic	-6322
▁innov	-6323
▁jones	-6324
▁knife	-6325
▁knock	-6326
▁laser	-6327
▁login	-6328
▁lunch	-6329
▁metab	-6330
▁monop	-6331
▁multi	-6332
▁numer	-6333
▁ocean	-6334
▁overw	-6335
▁peter	-6336
▁piano	-6337
▁pills	-6338
▁pleas	-6339
▁redmi	-6340
▁schiz	-6341
▁staff	-6342
▁uttar	-6343
▁vegas	-6344
▁walls	-6345
▁wanna	-6346
▁warri	-6347
▁wives	-6348
ibility	-6349
itative	-6350
▁adding	-6351
▁advise	-6352
▁annual	-6353
▁attorn	-6354
▁babies	-6355
▁batman	-6356
▁batter	-6357
▁bitsat	-6358
▁bother	-6359
▁breaks	-6360
▁button	-6361
▁chinas	-6362
▁chocol	-6363
▁collab	-6364
▁combat	-6365
▁convin	-6366
▁defeat	-6367
▁deport	-6368
▁desert	-6369
▁earths	-6370
▁enable	-6371
▁ensure	-6372
▁facing	-6373
▁factor	-6374
▁facult	-6375
▁filled	-6376
▁filter	-6377
▁fluent	-6378
▁kindle	-6379
▁limits	-6380
▁marine	-6381
▁metall	-6382
▁morgan	-6383
▁notice	-6384
▁overth	-6385
▁permit	-6386
▁pounds	-6387
▁proven	-6388
▁raised	-6389
▁rating	-6390
▁relate	-6391
▁remote	-6392
▁rental	-6393
▁rupees	-6394
▁scores	-6395
▁shower	-6396
▁skinny	-6397
▁smooth	-6398
▁sodium	-6399
▁stalin	-6400
▁strike	-6401
▁string	-6402
▁subsid	-6403
▁telugu	-6404
▁thesis	-6405
▁throat	-6406
▁tracks	-6407
▁ubuntu	-6408
▁unfair	-6409
▁vacuum	-6410
▁verbal	-6411
▁volcan	-6412
▁volume	-6413
▁volunt	-6414
▁weapon	-6415
▁womans	-6416
▁worker	-6417
▁abraham	-6418
▁abusive	-6419
▁authent	-6420
▁autocad	-6421
▁bedroom	-6422
▁captain	-6423
▁careers	-6424
▁carried	-6425
▁chicago	-6426
▁conquer	-6427
▁consume	-6428
▁cooking	-6429
▁couples	-6430
▁dangers	-6431
▁decades	-6432
▁deliver	-6433
▁diamond	-6434
▁dropped	-6435
▁elected	-6436
▁enhance	-6437
▁ethical	-6438
▁genetic	-6439
▁georgia	-6440
▁glasses	-6441
▁grammar	-6442
▁graphic	-6443
▁gujarat	-6444
▁gurgaon	-6445
▁harvard	-6446
▁hostels	-6447
▁hunting	-6448
▁interse	-6449
▁islands	-6450
▁jealous	-6451
▁jewelry	-6452
▁journey	-6453
▁landing	-6454
▁longest	-6455
▁massage	-6456
▁periods	-6457
▁prestig	-6458
▁printed	-6459
▁restore	-6460
▁revenue	-6461
▁savings	-6462
▁singing	-6463
▁speaker	-6464
▁visited	-6465
▁warfare	-6466
▁although	-6467
▁aluminum	-6468
▁americas	-6469
▁biblical	-6470
▁committe	-6471
▁compress	-6472
▁confused	-6473
▁delivery	-6474
▁diabetes	-6475
▁entirely	-6476
▁families	-6477
▁horrible	-6478
▁hypothet	-6479
▁ignorant	-6480
▁kashmiri	-6481
▁linkedin	-6482
▁longterm	-6483
▁magnetic	-6484
▁morality	-6485
▁mountain	-6486
▁nitrogen	-6487
▁parallel	-6488
▁presence	-6489
▁provider	-6490
▁restrict	-6491
▁smallest	-6492
▁spectrum	-6493
▁stranger	-6494
▁stronger	-6495
▁whatever	-6496
ologically	-6497
▁antisemit	-6498
▁appearing	-6499
▁awareness	-6500
▁cambridge	-6501
▁canadians	-6502
▁christmas	-6503
▁component	-6504
▁computing	-6505
▁decisions	-6506
▁equipment	-6507
▁exercises	-6508
▁expansion	-6509
▁extension	-6510
▁foreigner	-6511
▁framework	-6512
▁holocaust	-6513
▁household	-6514
▁listening	-6515
▁otherwise	-6516
▁pollution	-6517
▁processes	-6518
▁programme	-6519
▁rajasthan	-6520
▁reactions	-6521
▁sacrifice	-6522
▁somewhere	-6523
▁spacetime	-6524
▁spiritual	-6525
▁strongest	-6526
▁territory	-6527
▁virginity	-6528
▁worldwide	-6529
▁beneficial	-6530
▁calculated	-6531
▁candidates	-6532
▁discipline	-6533
▁impression	-6534
▁integrated	-6535
▁masturbate	-6536
▁motorcycle	-6537
▁practicing	-6538
▁presidency	-6539
▁principles	-6540
▁profitable	-6541
▁relatively	-6542
▁separation	-6543
▁sufficient	-6544
▁complicated	-6545
▁connections	-6546
▁financially	-6547
▁implemented	-6548
▁influential	-6549
▁ingredients	-6550
▁integration	-6551
▁maintenance	-6552
▁nationalism	-6553
▁transaction	-6554
▁acceleration	-6555
▁accidentally	-6556
▁consistently	-6557
▁differential	-6558
▁organization	-6559
▁qualification	-6560
▁administration	-6561
▁transportation	-6562
dm	-6563
fc	-6564
mt	-6565
no	-6566
ye	-6567
bar	-6568
bby	-6569
bed	-6570
bur	-6571
car	-6572
dis	-6573
edi	-6574
gel	-6575
lla	-6576
lob	-6577
nis	-6578
oes	-6579
rim	-6580
tes	-6581
ued	-6582
vis	-6583
▁32	-6584
▁cm	-6585
▁cp	-6586
▁ls	-6587
▁sr	-6588
▁va	-6589
0000	-6590
anas	-6591
apur	-6592
atar	-6593
cers	-6594
cium	-6595
elts	-6596
ests	-6597
gium	-6598
gust	-6599
hand	-6600
itis	-6601
iver	-6602
kers	-6603
ogen	-6604
omas	-6605
omin	-6606
onia	-6607
rage	-6608
tion	-6609
ycle	-6610
▁193	-6611
▁aid	-6612
▁aug	-6613
▁aws	-6614
▁bac	-6615
▁bba	-6616
▁bid	-6617
▁bom	-6618
▁bos	-6619
▁bru	-6620
▁bun	-6621
▁cer	-6622
▁cet	-6623
▁cis	-6624
▁eee	-6625
▁ela	-6626
▁fbi	-6627
▁fid	-6628
▁gam	-6629
▁gon	-6630
▁gor	-6631
▁hiv	-6632
▁ies	-6633
▁iot	-6634
▁jin	-6635
▁jog	-6636
▁jon	-6637
▁kar	-6638
▁ket	-6639
▁koh	-6640
▁lam	-6641
▁lap	-6642
▁ray	-6643
▁sar	-6644
▁sas	-6645
▁sel	-6646
▁spl	-6647
▁srm	-6648
▁ssb	-6649
▁tas	-6650
▁van	-6651
alled	-6652
cedes	-6653
cling	-6654
conds	-6655
cript	-6656
eared	-6657
ength	-6658
erman	-6659
erves	-6660
esome	-6661
front	-6662
human	-6663
ights	-6664
iliar	-6665
inent	-6666
itate	-6667
kings	-6668
lding	-6669
llion	-6670
llore	-6671
ocity	-6672
orate	-6673
otive	-6674
outer	-6675
rable	-6676
riger	-6677
rough	-6678
using	-6679
wares	-6680
ystem	-6681
▁2013	-6682
▁2014	-6683
▁5000	-6684
▁abst	-6685
▁bact	-6686
▁cham	-6687
▁coal	-6688
▁dani	-6689
▁disk	-6690
▁durg	-6691
▁ebay	-6692
▁elev	-6693
▁fate	-6694
▁fest	-6695
▁ford	-6696
▁fulf	-6697
▁gene	-6698
▁heal	-6699
▁hits	-6700
▁hook	-6701
▁horm	-6702
▁iiit	-6703
▁intu	-6704
▁item	-6705
▁jain	-6706
▁jong	-6707
▁khan	-6708
▁lift	-6709
▁matt	-6710
▁melt	-6711
▁mete	-6712
▁mike	-6713
▁nadu	-6714
▁nift	-6715
▁none	-6716
▁nons	-6717
▁odds	-6718
▁pend	-6719
▁pics	-6720
▁pizz	-6721
▁plas	-6722
▁pond	-6723
▁prey	-6724
▁quad	-6725
▁ride	-6726
▁ruin	-6727
▁shit	-6728
▁sper	-6729
▁surn	-6730
▁swit	-6731
▁synt	-6732
▁task	-6733
▁tier	-6734
▁tiny	-6735
▁tiss	-6736
▁tone	-6737
▁tree	-6738
▁trop	-6739
▁ugly	-6740
▁unex	-6741
▁unhe	-6742
▁warn	-6743
▁whis	-6744
▁yoga	-6745
▁zion	-6746
aneous	-6747
estyle	-6748
icious	-6749
iliate	-6750
iments	-6751
inated	-6752
master	-6753
omatic	-6754
orship	-6755
ospace	-6756
piracy	-6757
ronics	-6758
ulated	-6759
weight	-6760
▁ahmed	-6761
▁anger	-6762
▁beard	-6763
▁bones	-6764
▁bound	-6765
▁chrom	-6766
▁chron	-6767
▁comic	-6768
▁concl	-6769
▁cryst	-6770
▁cured	-6771
▁drain	-6772
▁drawn	-6773
▁elder	-6774
▁falls	-6775
▁frict	-6776
▁giant	-6777
▁gifts	-6778
▁hacks	-6779
▁hates	-6780
▁holes	-6781
▁ielts	-6782
▁incom	-6783
▁kidna	-6784
▁kings	-6785
▁manif	-6786
▁metro	-6787
▁miles	-6788
▁moons	-6789
▁muham	-6790
▁nobel	-6791
▁patna	-6792
▁plays	-6793
▁quiet	-6794
▁races	-6795
▁recre	-6796
▁reinf	-6797
▁relat	-6798
▁ridic	-6799
▁sauce	-6800
▁scand	-6801
▁scary	-6802
▁sells	-6803
▁sheet	-6804
▁slept	-6805
▁smile	-6806
▁smith	-6807
▁smoke	-6808
▁sorry	-6809
▁sweet	-6810
▁talks	-6811
▁taste	-6812
▁titan	-6813
▁traum	-6814
▁trick	-6815
▁uncom	-6816
▁uncon	-6817
▁vocal	-6818
▁wavel	-6819
▁wheel	-6820
agnetic	-6821
mediate	-6822
portion	-6823
▁addict	-6824
▁airbnb	-6825
▁argent	-6826
▁atmosp	-6827
▁banana	-6828
▁berlin	-6829
▁biomed	-6830
▁bombay	-6831
▁boston	-6832
▁bridge	-6833
▁bright	-6834
▁chrome	-6835
▁circul	-6836
▁closer	-6837
▁compla	-6838
▁contra	-6839
▁corner	-6840
▁correl	-6841
▁county	-6842
▁detail	-6843
▁dosage	-6844
▁export	-6845
▁grocer	-6846
▁hadoop	-6847
▁heaven	-6848
▁hunger	-6849
▁hunter	-6850
▁hurric	-6851
▁inches	-6852
▁intent	-6853
▁joined	-6854
▁larger	-6855
▁lesson	-6856
▁listed	-6857
▁margin	-6858
▁metals	-6859
▁missed	-6860
▁myster	-6861
▁oldest	-6862
▁oracle	-6863
▁output	-6864
▁pencil	-6865
▁petrol	-6866
▁phrase	-6867
▁potato	-6868
▁prince	-6869
▁quebec	-6870
▁refund	-6871
▁repair	-6872
▁retain	-6873
▁safest	-6874
▁simult	-6875
▁slight	-6876
▁solved	-6877
▁stored	-6878
▁sunday	-6879
▁surviv	-6880
▁talked	-6881
▁taylor	-6882
▁thanks	-6883
▁tinder	-6884
▁toward	-6885
▁unless	-6886
▁unlike	-6887
▁voters	-6888
▁voting	-6889
▁wallet	-6890
▁adopted	-6891
▁angeles	-6892
▁appoint	-6893
▁austria	-6894
▁awesome	-6895
▁becomes	-6896
▁belgium	-6897
▁boiling	-6898
▁calcium	-6899
▁carrier	-6900
▁charged	-6901
▁command	-6902
▁compass	-6903
▁consent	-6904
▁defence	-6905
▁defense	-6906
▁denmark	-6907
▁desktop	-6908
▁disable	-6909
▁disgust	-6910
▁efforts	-6911
▁electro	-6912
▁engines	-6913
▁failing	-6914
▁fastest	-6915
▁flights	-6916
▁hardest	-6917
▁hosting	-6918
▁instrum	-6919
▁involve	-6920
▁israeli	-6921
▁justify	-6922
▁krishna	-6923
▁legends	-6924
▁matches	-6925
▁matters	-6926
▁mercury	-6927
▁missile	-6928
▁moments	-6929
▁musical	-6930
▁organis	-6931
▁painful	-6932
▁passive	-6933
▁privacy	-6934
▁propose	-6935
▁refugee	-6936
▁removal	-6937
▁richard	-6938
▁scoring	-6939
▁seconds	-6940
▁secured	-6941
▁shopify	-6942
▁silicon	-6943
▁soldier	-6944
▁strings	-6945
▁totally	-6946
▁trained	-6947
▁tuition	-6948
▁vellore	-6949
▁waiting	-6950
▁watches	-6951
▁workers	-6952
ationally	-6953
structure	-6954
▁abstract	-6955
▁attorney	-6956
▁audience	-6957
▁checking	-6958
▁circular	-6959
▁columbia	-6960
▁consumer	-6961
▁contacts	-6962
▁countrys	-6963
▁criminal	-6964
▁defining	-6965
▁disaster	-6966
▁division	-6967
▁episodes	-6968
▁expenses	-6969
▁feminism	-6970
▁finished	-6971
▁integral	-6972
▁mercedes	-6973
▁mistakes	-6974
▁moderate	-6975
▁molecule	-6976
▁mosquito	-6977
▁november	-6978
▁peaceful	-6979
▁phenomen	-6980
▁prepared	-6981
▁recovery	-6982
▁refriger	-6983
▁refugees	-6984
▁regional	-6985
▁reliance	-6986
▁sections	-6987
▁shutdown	-6988
▁stations	-6989
▁transmit	-6990
▁velocity	-6991
▁weakness	-6992
▁aerospace	-6993
▁answering	-6994
▁arguments	-6995
▁associate	-6996
▁astronomy	-6997
▁automatic	-6998
▁construct	-6999
▁customers	-7000
▁discharge	-7001
▁encourage	-7002
▁essential	-7003
▁francisco	-7004
▁furniture	-7005
▁hospitals	-7006
▁immigrant	-7007
▁invention	-7008
▁judgement	-7009
▁medicines	-7010
▁northeast	-7011
▁objective	-7012
▁preferred	-7013
▁protected	-7014
▁providers	-7015
▁purchased	-7016
▁remington	-7017
▁searching	-7018
▁separated	-7019
▁strangers	-7020
▁textbooks	-7021
▁wrestling	-7022
▁attraction	-7023
▁biomedical	-7024
▁comparison	-7025
▁conspiracy	-7026
▁continuous	-7027
▁definitely	-7028
▁determined	-7029
▁expression	-7030
▁healthcare	-7031
▁homosexual	-7032
▁medication	-7033
▁networking	-7034
▁pakistanis	-7035
▁presidents	-7036
▁professors	-7037
▁proportion	-7038
▁regression	-7039
▁situations	-7040
▁structures	-7041
▁submission	-7042
▁travelling	-7043
▁treatments	-7044
▁wavelength	-7045
▁citizenship	-7046
▁individuals	-7047
▁internships	-7048
▁limitations	-7049
▁replacement	-7050
▁contribution	-7051
▁difficulties	-7052
▁subscription	-7053
▁concentration	-7054
▁neighborhoods	-7055
▁philosophical	-7056
▁realistically	-7057
▁infrastructure	-7058
45	-7059
75	-7060
81	-7061
99	-7062
fo	-7063
iy	-7064
je	-7065
kh	-7066
mm	-7067
tp	-7068
ua	-7069
ags	-7070
ahs	-7071
anj	-7072
aya	-7073
bts	-7074
cus	-7075
ded	-7076
def	-7077
een	-7078
fly	-7079
fun	-7080
gat	-7081
got	-7082
ini	-7083
itt	-7084
itu	-7085
kan	-7086
kar	-7087
lan	-7088
los	-7089
mic	-7090
mus	-7091
orp	-7092
phy	-7093
pos	-7094
rid	-7095
rix	-7096
roc	-7097
urt	-7098
uru	-7099
vas	-7100
wag	-7101
why	-7102
win	-7103
wis	-7104
ysi	-7105
zen	-7106
▁01	-7107
▁29	-7108
▁44	-7109
▁48	-7110
▁51	-7111
▁52	-7112
▁dt	-7113
▁dv	-7114
▁ft	-7115
▁kp	-7116
▁mf	-7117
▁ov	-7118
▁rh	-7119
▁vl	-7120
▁yo	-7121
▁yr	-7122
2018	-7123
ador	-7124
ango	-7125
anth	-7126
assy	-7127
bing	-7128
cape	-7129
elle	-7130
enez	-7131
free	-7132
heet	-7133
ibet	-7134
igan	-7135
inte	-7136
itee	-7137
izab	-7138
kart	-7139
kind	-7140
lets	-7141
look	-7142
opes	-7143
orph	-7144
osen	-7145
ours	-7146
plus	-7147
rick	-7148
rill	-7149
rine	-7150
sess	-7151
seud	-7152
uber	-7153
umes	-7154
unes	-7155
user	-7156
wash	-7157
wear	-7158
▁120	-7159
▁abn	-7160
▁alt	-7161
▁api	-7162
▁apt	-7163
▁aqu	-7164
▁bah	-7165
▁bhu	-7166
▁bin	-7167
▁cub	-7168
▁cum	-7169
▁cyl	-7170
▁dio	-7171
▁dum	-7172
▁dye	-7173
▁ese	-7174
▁fib	-7175
▁gdp	-7176
▁hem	-7177
▁htt	-7178
▁iam	-7179
▁inr	-7180
▁ion	-7181
▁jab	-7182
▁jan	-7183
▁jup	-7184
▁kan	-7185
▁lac	-7186
▁mao	-7187
▁mcc	-7188
▁mob	-7189
▁mph	-7190
▁mue	-7191
▁mum	-7192
▁nik	-7193
▁nur	-7194
▁ocd	-7195
▁ott	-7196
▁pac	-7197
▁pod	-7198
▁roy	-7199
▁rum	-7200
▁sne	-7201
▁sul	-7202
▁suz	-7203
▁unw	-7204
▁usb	-7205
▁ves	-7206
▁vpn	-7207
▁vul	-7208
▁wid	-7209
▁wil	-7210
abhar	-7211
aceut	-7212
agger	-7213
allow	-7214
althy	-7215
angle	-7216
arity	-7217
backs	-7218
elled	-7219
gebra	-7220
herry	-7221
hmins	-7222
house	-7223
ifier	-7224
ifies	-7225
inger	-7226
ingly	-7227
isine	-7228
itles	-7229
izers	-7230
oldem	-7231
omous	-7232
orter	-7233
point	-7234
rieve	-7235
round	-7236
state	-7237
usual	-7238
xuals	-7239
▁1990	-7240
▁alab	-7241
▁anne	-7242
▁axis	-7243
▁bars	-7244
▁bcom	-7245
▁bise	-7246
▁bowl	-7247
▁brah	-7248
▁buck	-7249
▁cage	-7250
▁clat	-7251
▁clay	-7252
▁duke	-7253
▁eggs	-7254
▁farm	-7255
▁fool	-7256
▁golf	-7257
▁grab	-7258
▁guid	-7259
▁gulf	-7260
▁held	-7261
▁idol	-7262
▁iisc	-7263
▁inev	-7264
▁info	-7265
▁isro	-7266
▁jury	-7267
▁kath	-7268
▁kent	-7269
▁leak	-7270
▁luke	-7271
▁lump	-7272
▁mega	-7273
▁neck	-7274
▁nick	-7275
▁obam	-7276
▁oxid	-7277
▁pear	-7278
▁penn	-7279
▁rush	-7280
▁rust	-7281
▁sach	-7282
▁salv	-7283
▁scot	-7284
▁sink	-7285
▁sore	-7286
▁soup	-7287
▁spat	-7288
▁stip	-7289
▁tack	-7290
▁tata	-7291
▁ucla	-7292
▁ukra	-7293
▁vast	-7294
▁vend	-7295
▁verb	-7296
▁wide	-7297
ancing	-7298
assium	-7299
bourne	-7300
course	-7301
ffered	-7302
galore	-7303
icated	-7304
inting	-7305
lights	-7306
mation	-7307
semble	-7308
valent	-7309
worthy	-7310
▁ahead	-7311
▁alban	-7312
▁album	-7313
▁alpha	-7314
▁arabs	-7315
▁armen	-7316
▁armor	-7317
▁arrog	-7318
▁bills	-7319
▁brief	-7320
▁carol	-7321
▁chand	-7322
▁charl	-7323
▁codes	-7324
▁cyber	-7325
▁darth	-7326
▁dates	-7327
▁deals	-7328
▁drama	-7329
▁estim	-7330
▁flood	-7331
▁flour	-7332
▁frust	-7333
▁grams	-7334
▁guess	-7335
▁highs	-7336
▁hired	-7337
▁honda	-7338
▁ignou	-7339
▁joint	-7340
▁kenya	-7341
▁lakhs	-7342
▁lanka	-7343
▁legis	-7344
▁lingu	-7345
▁loose	-7346
▁louis	-7347
▁maybe	-7348
▁moroc	-7349
▁named	-7350
▁orbit	-7351
▁owned	-7352
▁param	-7353
▁paran	-7354
▁penet	-7355
▁physi	-7356
▁pseud	-7357
▁quite	-7358
▁radar	-7359
▁rahul	-7360
▁raped	-7361
▁ratio	-7362
▁relax	-7363
▁roads	-7364
▁rooms	-7365
▁rural	-7366
▁santa	-7367
▁silly	-7368
▁snake	-7369
▁spent	-7370
▁sperm	-7371
▁sport	-7372
▁spots	-7373
▁stack	-7374
▁sweat	-7375
▁swift	-7376
▁teles	-7377
▁texts	-7378
▁thank	-7379
▁thumb	-7380
▁tibet	-7381
▁trash	-7382
▁tribe	-7383
▁usage	-7384
▁venez	-7385
▁veter	-7386
▁yours	-7387
amental	-7388
ignment	-7389
iliated	-7390
iveness	-7391
odation	-7392
rection	-7393
through	-7394
▁allies	-7395
▁allows	-7396
▁antide	-7397
▁appare	-7398
▁appeal	-7399
▁attach	-7400
▁baking	-7401
▁bitter	-7402
▁bottle	-7403
▁braces	-7404
▁broker	-7405
▁cheese	-7406
▁chosen	-7407
▁comics	-7408
▁creepy	-7409
▁curric	-7410
▁deeply	-7411
▁diesel	-7412
▁divide	-7413
▁donate	-7414
▁driven	-7415
▁driver	-7416
▁elizab	-7417
▁engage	-7418
▁errors	-7419
▁escape	-7420
▁ethics	-7421
▁excell	-7422
▁flavor	-7423
▁forced	-7424
▁freeze	-7425
▁funded	-7426
▁garden	-7427
▁gravit	-7428
▁greeks	-7429
▁hardly	-7430
▁hybrid	-7431
▁insect	-7432
▁insist	-7433
▁invite	-7434
▁jordan	-7435
▁junior	-7436
▁justin	-7437
▁killer	-7438
▁ladies	-7439
▁lately	-7440
▁lonely	-7441
▁loving	-7442
▁magnet	-7443
▁marath	-7444
▁meteor	-7445
▁microw	-7446
▁minute	-7447
▁nether	-7448
▁nobody	-7449
▁occupy	-7450
▁openly	-7451
▁passes	-7452
▁pedoph	-7453
▁prelim	-7454
▁puppet	-7455
▁quoran	-7456
▁racial	-7457
▁render	-7458
▁robots	-7459
▁rocket	-7460
▁ruling	-7461
▁secure	-7462
▁sensor	-7463
▁sharia	-7464
▁shield	-7465
▁singer	-7466
▁slaves	-7467
▁stated	-7468
▁stayed	-7469
▁strict	-7470
▁syrian	-7471
▁thomas	-7472
▁vishnu	-7473
▁voldem	-7474
▁werent	-7475
▁wheels	-7476
▁wholes	-7477
▁window	-7478
▁wooden	-7479
abharata	-7480
ensional	-7481
gressive	-7482
ographer	-7483
rational	-7484
▁algebra	-7485
▁battles	-7486
▁bengali	-7487
▁builder	-7488
▁charity	-7489
▁concert	-7490
▁constra	-7491
▁contest	-7492
▁cracked	-7493
▁curious	-7494
▁custody	-7495
▁cutting	-7496
▁default	-7497
▁defined	-7498
▁dioxide	-7499
▁disturb	-7500
▁dynamic	-7501
▁enlight	-7502
▁ethanol	-7503
▁existed	-7504
▁extract	-7505
▁faculty	-7506
▁fascist	-7507
▁fishing	-7508
▁fortune	-7509
▁founder	-7510
▁gaining	-7511
▁habitat	-7512
▁herself	-7513
▁however	-7514
▁integer	-7515
▁kannada	-7516
▁keeping	-7517
▁keyword	-7518
▁leading	-7519
▁leather	-7520
▁lessons	-7521
▁macbook	-7522
▁mission	-7523
▁mueller	-7524
▁offline	-7525
▁olympic	-7526
▁operate	-7527
▁overall	-7528
▁penalty	-7529
▁possess	-7530
▁postgra	-7531
▁pretend	-7532
▁privile	-7533
▁proceed	-7534
▁returns	-7535
▁revenge	-7536
▁shotgun	-7537
▁summary	-7538
▁surgeon	-7539
▁swedish	-7540
▁thrones	-7541
▁unknown	-7542
▁unusual	-7543
▁upgrade	-7544
▁vaccine	-7545
▁victims	-7546
▁volcano	-7547
▁warming	-7548
▁wasting	-7549
▁weekend	-7550
▁africans	-7551
▁agencies	-7552
▁approved	-7553
▁aptitude	-7554
▁arrested	-7555
▁autistic	-7556
▁bachelor	-7557
▁bankrupt	-7558
▁brahmins	-7559
▁chapters	-7560
▁cheating	-7561
▁civilian	-7562
▁contains	-7563
▁covering	-7564
▁critical	-7565
▁damaging	-7566
▁dictator	-7567
▁distinct	-7568
▁duration	-7569
▁einstein	-7570
▁electrom	-7571
▁emotions	-7572
▁entering	-7573
▁extended	-7574
▁facility	-7575
▁familiar	-7576
▁flipkart	-7577
▁generate	-7578
▁genetics	-7579
▁hypocrit	-7580
▁innocent	-7581
▁instance	-7582
▁investor	-7583
▁machines	-7584
▁magazine	-7585
▁manifest	-7586
▁monopoly	-7587
▁northern	-7588
▁offended	-7589
▁offering	-7590
▁packages	-7591
▁requires	-7592
▁retrieve	-7593
▁rotating	-7594
▁stanford	-7595
▁suffered	-7596
▁survived	-7597
▁synchron	-7598
▁tolerate	-7599
▁tourists	-7600
▁venezuel	-7601
▁virginia	-7602
▁youtuber	-7603
▁adventure	-7604
▁afterlife	-7605
▁agreement	-7606
▁alcoholic	-7607
▁amendment	-7608
▁astronaut	-7609
▁authority	-7610
▁believing	-7611
▁breathing	-7612
▁challenge	-7613
▁chocolate	-7614
▁committee	-7615
▁confirmed	-7616
▁diagnosis	-7617
▁dimension	-7618
▁expecting	-7619
▁forgotten	-7620
▁generator	-7621
▁illegally	-7622
▁intensity	-7623
▁introvert	-7624
▁mangalore	-7625
▁melbourne	-7626
▁physicist	-7627
▁poisonous	-7628
▁potassium	-7629
▁presented	-7630
▁radiation	-7631
▁reasoning	-7632
▁receiving	-7633
▁recording	-7634
▁regularly	-7635
▁rejection	-7636
▁residents	-7637
▁satisfied	-7638
▁subtitles	-7639
▁tolerance	-7640
▁typically	-7641
▁unhealthy	-7642
▁universal	-7643
▁witnessed	-7644
▁absolutely	-7645
▁applicants	-7646
▁automotive	-7647
▁classified	-7648
▁committing	-7649
▁compressor	-7650
▁destroying	-7651
▁everywhere	-7652
▁instructor	-7653
▁interviews	-7654
▁mainstream	-7655
▁meaningful	-7656
▁mosquitoes	-7657
▁negatively	-7658
▁performing	-7659
▁positively	-7660
▁preference	-7661
▁projection	-7662
▁recruiting	-7663
▁represents	-7664
▁retirement	-7665
▁threatened	-7666
▁agriculture	-7667
▁description	-7668
▁destination	-7669
▁distinguish	-7670
▁downloading	-7671
▁fundamental	-7672
▁girlfriends	-7673
▁governments	-7674
▁mahabharata	-7675
▁netherlands	-7676
▁prestigious	-7677
▁statistical	-7678
▁breakthrough	-7679
▁civilization	-7680
▁expectations	-7681
▁intellectual	-7682
▁intermediate	-7683
▁intersection	-7684
▁masturbation	-7685
▁psychiatrist	-7686
▁transmission	-7687
▁distinguishes	-7688
▁establishment	-7689
▁gravitational	-7690
▁revolutionary	-7691
▁responsibility	-7692
32	-7693
47	-7694
55	-7695
gb	-7696
hs	-7697
ij	-7698
vc	-7699
adu	-7700
aid	-7701
ben	-7702
chy	-7703
cin	-7704
dem	-7705
dha	-7706
efl	-7707
ela	-7708
hea	-7709
ifi	-7710
igs	-7711
irm	-7712
irs	-7713
itz	-7714
iya	-7715
law	-7716
mot	-7717
not	-7718
ola	-7719
olt	-7720
rot	-7721
shi	-7722
spe	-7723
thm	-7724
tsd	-7725
uit	-7726
uke	-7727
uki	-7728
vey	-7729
ych	-7730
ynt	-7731
yrs	-7732
▁31	-7733
▁33	-7734
▁55	-7735
▁57	-7736
▁88	-7737
▁dm	-7738
▁fu	-7739
▁ga	-7740
▁gs	-7741
▁hk	-7742
▁il	-7743
▁ll	-7744
▁md	-7745
▁nm	-7746
▁ol	-7747
▁pp	-7748
▁rc	-7749
▁sd	-7750
▁si	-7751
▁vr	-7752
2017	-7753
agon	-7754
aken	-7755
anne	-7756
ansk	-7757
arks	-7758
ayan	-7759
bean	-7760
bell	-7761
boot	-7762
esis	-7763
fire	-7764
fish	-7765
hero	-7766
ials	-7767
iffs	-7768
illa	-7769
ilst	-7770
indu	-7771
ipro	-7772
leum	-7773
mals	-7774
mart	-7775
miss	-7776
obia	-7777
ogan	-7778
olas	-7779
oman	-7780
ophy	-7781
ords	-7782
oric	-7783
part	-7784
pond	-7785
real	-7786
reds	-7787
rets	-7788
rite	-7789
rium	-7790
rust	-7791
seum	-7792
stru	-7793
teen	-7794
thal	-7795
tons	-7796
udes	-7797
uras	-7798
vest	-7799
vind	-7800
wers	-7801
yles	-7802
▁150	-7803
▁197	-7804
▁atl	-7805
▁bee	-7806
▁cho	-7807
▁coo	-7808
▁cpu	-7809
▁dil	-7810
▁ell	-7811
▁fol	-7812
▁ger	-7813
▁gib	-7814
▁gol	-7815
▁hay	-7816
▁hel	-7817
▁hop	-7818
▁hug	-7819
▁ink	-7820
▁ips	-7821
▁isc	-7822
▁jad	-7823
▁jaz	-7824
▁joe	-7825
▁joy	-7826
▁kap	-7827
▁kle	-7828
▁kor	-7829
▁lbs	-7830
▁lev	-7831
▁mca	-7832
▁nan	-7833
▁nap	-7834
▁ncr	-7835
▁nim	-7836
▁nom	-7837
▁nri	-7838
▁odd	-7839
▁ont	-7840
▁pag	-7841
▁pdf	-7842
▁pip	-7843
▁pup	-7844
▁rig	-7845
▁rip	-7846
▁row	-7847
▁sav	-7848
▁sir	-7849
▁spa	-7850
▁spi	-7851
▁ted	-7852
▁tet	-7853
▁tig	-7854
▁tir	-7855
▁tob	-7856
▁twe	-7857
▁ult	-7858
▁unh	-7859
▁ups	-7860
▁uss	-7861
▁vad	-7862
▁vap	-7863
▁vom	-7864
▁wol	-7865
achal	-7866
agree	-7867
ailed	-7868
anged	-7869
anity	-7870
ashes	-7871
asses	-7872
ayana	-7873
based	-7874
berty	-7875
cuted	-7876
empor	-7877
etary	-7878
gling	-7879
going	-7880
hesis	-7881
hibit	-7882
iated	-7883
idays	-7884
ipers	-7885
lains	-7886
level	-7887
liers	-7888
lings	-7889
lobin	-7890
mates	-7891
ocial	-7892
olved	-7893
organ	-7894
ormon	-7895
ortal	-7896
oster	-7897
otted	-7898
oxide	-7899
plant	-7900
poses	-7901
proof	-7902
rates	-7903
rayed	-7904
rings	-7905
stone	-7906
uther	-7907
verts	-7908
wered	-7909
women	-7910
ysics	-7911
▁1947	-7912
▁1980	-7913
▁2012	-7914
▁airt	-7915
▁ampl	-7916
▁anat	-7917
▁ants	-7918
▁ardu	-7919
▁aspd	-7920
▁aven	-7921
▁badm	-7922
▁bard	-7923
▁bash	-7924
▁bell	-7925
▁bent	-7926
▁benz	-7927
▁boom	-7928
▁bust	-7929
▁cake	-7930
▁calm	-7931
▁chol	-7932
▁chop	-7933
▁cram	-7934
▁curv	-7935
▁cute	-7936
▁dose	-7937
▁dump	-7938
▁eyel	-7939
▁fert	-7940
▁flee	-7941
▁funn	-7942
▁gent	-7943
▁grad	-7944
▁grat	-7945
▁guar	-7946
▁hier	-7947
▁hobb	-7948
▁hons	-7949
▁hund	-7950
▁iims	-7951
▁inju	-7952
▁jedi	-7953
▁jeff	-7954
▁kurd	-7955
▁laid	-7956
▁lake	-7957
▁laun	-7958
▁marg	-7959
▁marx	-7960
▁mary	-7961
▁mira	-7962
▁moto	-7963
▁mugh	-7964
▁numb	-7965
▁oman	-7966
▁owns	-7967
▁peer	-7968
▁pent	-7969
▁perm	-7970
▁plug	-7971
▁pool	-7972
▁pork	-7973
▁ptsd	-7974
▁rasp	-7975
▁reve	-7976
▁roof	-7977
▁sain	-7978
▁scal	-7979
▁sept	-7980
▁sets	-7981
▁sett	-7982
▁shel	-7983
▁shif	-7984
▁shoe	-7985
▁slee	-7986
▁slim	-7987
▁slit	-7988
▁soph	-7989
▁spid	-7990
▁surg	-7991
▁symp	-7992
▁tail	-7993
▁tape	-7994
▁thai	-7995
▁ties	-7996
▁triv	-7997
▁trou	-7998
▁turb	-7999
▁unne	-8000
▁uran	-8001
▁ward	-8002
▁xmen	-8003
active	-8004
ailand	-8005
asters	-8006
ateral	-8007
atible	-8008
called	-8009
ceived	-8010
commun	-8011
father	-8012
hereum	-8013
ibbean	-8014
icians	-8015
icitly	-8016
iented	-8017
ifying	-8018
indian	-8019
ipedia	-8020
isible	-8021
liness	-8022
listed	-8023
onance	-8024
ophren	-8025
oscope	-8026
pector	-8027
rating	-8028
roleum	-8029
▁absor	-8030
▁acids	-8031
▁adolf	-8032
▁angel	-8033
▁annoy	-8034
▁appet	-8035
▁argue	-8036
▁arrow	-8037
▁assum	-8038
▁beach	-8039
▁bears	-8040
▁belly	-8041
▁bench	-8042
▁berke	-8043
▁boxes	-8044
▁cable	-8045
▁canal	-8046
▁cease	-8047
▁chaos	-8048
▁clock	-8049
▁clown	-8050
▁cough	-8051
▁cowor	-8052
▁crowd	-8053
▁curse	-8054
▁delus	-8055
▁deriv	-8056
▁diego	-8057
▁draft	-8058
▁elite	-8059
▁embed	-8060
▁emerg	-8061
▁explo	-8062
▁fever	-8063
▁fired	-8064
▁fluid	-8065
▁forex	-8066
▁forum	-8067
▁frost	-8068
▁harsh	-8069
▁hated	-8070
▁hydro	-8071
▁icici	-8072
▁iiser	-8073
▁immun	-8074
▁index	-8075
▁insec	-8076
▁intim	-8077
▁ionic	-8078
▁kevin	-8079
▁kohli	-8080
▁lands	-8081
▁layer	-8082
▁lease	-8083
▁lists	-8084
▁loans	-8085
▁lucky	-8086
▁lungs	-8087
▁marut	-8088
▁minds	-8089
▁moham	-8090
▁moles	-8091
▁monit	-8092
▁oblig	-8093
▁pages	-8094
▁paris	-8095
▁pizza	-8096
▁plate	-8097
▁poles	-8098
▁reset	-8099
▁rings	-8100
▁river	-8101
▁rough	-8102
▁safer	-8103
▁satur	-8104
▁screw	-8105
▁serbs	-8106
▁shops	-8107
▁sides	-8108
▁sight	-8109
▁socks	-8110
▁spart	-8111
▁steve	-8112
▁stuck	-8113
▁subst	-8114
▁toxic	-8115
▁tread	-8116
▁units	-8117
▁versa	-8118
▁voted	-8119
▁votes	-8120
▁yeast	-8121
▁zones	-8122
ception	-8123
helming	-8124
ilities	-8125
illance	-8126
jective	-8127
lements	-8128
oglobin	-8129
ractive	-8130
respect	-8131
respond	-8132
stitute	-8133
▁100000	-8134
▁abused	-8135
▁accuse	-8136
▁admire	-8137
▁advent	-8138
▁aggreg	-8139
▁ambass	-8140
▁approx	-8141
▁athlet	-8142
▁august	-8143
▁backup	-8144
▁barrel	-8145
▁biased	-8146
▁binary	-8147
▁booked	-8148
▁bypass	-8149
▁canvas	-8150
▁caring	-8151
▁carpet	-8152
▁casual	-8153
▁client	-8154
▁compos	-8155
▁copper	-8156
▁cruise	-8157
▁dental	-8158
▁desire	-8159
▁dinner	-8160
▁doubts	-8161
▁dragon	-8162
▁entity	-8163
▁extend	-8164
▁fallen	-8165
▁fellow	-8166
▁folder	-8167
▁fright	-8168
▁greece	-8169
▁hacked	-8170
▁hacker	-8171
▁hiding	-8172
▁himher	-8173
▁holder	-8174
▁houses	-8175
▁hungry	-8176
▁incest	-8177
▁inspir	-8178
▁jackie	-8179
▁jewell	-8180
▁manual	-8181
▁masses	-8182
▁mirror	-8183
▁motors	-8184
▁nagpur	-8185
▁narrow	-8186
▁nepali	-8187
▁novels	-8188
▁obamas	-8189
▁observ	-8190
▁oppose	-8191
▁orgasm	-8192
▁orthod	-8193
▁oscill	-8194
▁patent	-8195
▁plasma	-8196
▁primit	-8197
▁purple	-8198
▁rapper	-8199
▁regime	-8200
▁rivers	-8201
▁romans	-8202
▁ronald	-8203
▁safely	-8204
▁scenes	-8205
▁shaped	-8206
▁shared	-8207
▁snakes	-8208
▁socket	-8209
▁sooner	-8210
▁spacex	-8211
▁sphere	-8212
▁stamps	-8213
▁surely	-8214
▁tablet	-8215
▁talent	-8216
▁tamils	-8217
▁tennis	-8218
▁tongue	-8219
▁tricks	-8220
▁triump	-8221
▁vagina	-8222
▁verify	-8223
▁versus	-8224
▁vessel	-8225
▁viable	-8226
▁violin	-8227
▁whilst	-8228
▁worksh	-8229
▁worthy	-8230
▁yester	-8231
american	-8232
building	-8233
emporary	-8234
fortable	-8235
ologists	-8236
▁abolish	-8237
▁acquire	-8238
▁alabama	-8239
▁anxious	-8240
▁arrange	-8241
▁astroph	-8242
▁belongs	-8243
▁bicycle	-8244
▁blindly	-8245
▁bombing	-8246
▁bullies	-8247
▁calling	-8248
▁cartoon	-8249
▁chapter	-8250
▁circles	-8251
▁closest	-8252
▁comprom	-8253
▁coolest	-8254
▁courage	-8255
▁cuisine	-8256
▁deliber	-8257
▁demonet	-8258
▁depress	-8259
▁discard	-8260
▁divided	-8261
▁dragons	-8262
▁dresses	-8263
▁earthqu	-8264
▁elastic	-8265
▁embassy	-8266
▁empathy	-8267
▁equally	-8268
▁farmers	-8269
▁finland	-8270
▁focused	-8271
▁hacking	-8272
▁holiday	-8273
▁immoral	-8274
▁intrest	-8275
▁iranian	-8276
▁koreans	-8277
▁lacking	-8278
▁malaysi	-8279
▁mammals	-8280
▁mankind	-8281
▁melania	-8282
▁metabol	-8283
▁mexican	-8284
▁microbi	-8285
▁millenn	-8286
▁mindset	-8287
▁mirrors	-8288
▁monarch	-8289
▁monitor	-8290
▁muscles	-8291
▁neither	-8292
▁ottoman	-8293
▁outdoor	-8294
▁pending	-8295
▁podcast	-8296
▁posting	-8297
▁premium	-8298
▁promise	-8299
▁pronoun	-8300
▁prophet	-8301
▁puberty	-8302
▁pulling	-8303
▁punjabi	-8304
▁reached	-8305
▁realise	-8306
▁regions	-8307
▁restart	-8308
▁ridicul	-8309
▁rolling	-8310
▁russias	-8311
▁schemes	-8312
▁seasons	-8313
▁seattle	-8314
▁sponsor	-8315
▁staring	-8316
▁stipend	-8317
▁studied	-8318
▁swallow	-8319
▁symbols	-8320
▁tablets	-8321
▁theatre	-8322
▁theorem	-8323
▁threats	-8324
▁tissues	-8325
▁tourism	-8326
▁trailer	-8327
▁vendors	-8328
▁village	-8329
▁welcome	-8330
▁winning	-8331
aceutical	-8332
cessarily	-8333
▁abnormal	-8334
▁anywhere	-8335
▁approval	-8336
▁argument	-8337
▁arrogant	-8338
▁aspirant	-8339
▁astrolog	-8340
▁aviation	-8341
▁bisexual	-8342
▁bleeding	-8343
▁bringing	-8344
▁colonies	-8345
▁detailed	-8346
▁distract	-8347
▁district	-8348
▁dreaming	-8349
▁dropping	-8350
▁durgapur	-8351
▁ethereum	-8352
▁explains	-8353
▁focusing	-8354
▁forehead	-8355
▁frequent	-8356
▁freshman	-8357
▁friction	-8358
▁geograph	-8359
▁homemade	-8360
▁hypocris	-8361
▁immortal	-8362
▁injuries	-8363
▁intimate	-8364
▁investig	-8365
▁judgment	-8366
▁lectures	-8367
▁mahindra	-8368
▁mandarin	-8369
▁measures	-8370
▁merchant	-8371
▁michigan	-8372
▁misunder	-8373
▁mongolia	-8374
▁murdered	-8375
▁normally	-8376
▁obtained	-8377
▁occurred	-8378
▁operator	-8379
▁pleasure	-8380
▁purposes	-8381
▁quitting	-8382
▁realized	-8383
▁referral	-8384
▁referred	-8385
▁remedies	-8386
▁resigned	-8387
▁returned	-8388
▁rotation	-8389
▁scotland	-8390
▁sequence	-8391
▁sessions	-8392
▁siblings	-8393
▁slightly	-8394
▁surround	-8395
▁taxation	-8396
▁teleport	-8397
▁thailand	-8398
▁treating	-8399
▁trillion	-8400
▁tropical	-8401
▁tutorial	-8402
▁unwanted	-8403
▁valuable	-8404
▁villains	-8405
▁warriors	-8406
▁withdraw	-8407
▁worrying	-8408
girlfriend	-8409
▁abandoned	-8410
▁advisable	-8411
▁affiliate	-8412
▁ahmedabad	-8413
▁allahabad	-8414
▁animation	-8415
▁argentina	-8416
▁authentic	-8417
▁batteries	-8418
▁brazilian	-8419
▁broadcast	-8420
▁buildings	-8421
▁civilians	-8422
▁communism	-8423
▁convinced	-8424
▁curvature	-8425
▁disorders	-8426
▁elizabeth	-8427
▁enlighten	-8428
▁equations	-8429
▁everytime	-8430
▁excellent	-8431
▁fulfilled	-8432
▁graduates	-8433
▁immigrate	-8434
▁inspector	-8435
▁installed	-8436
▁intention	-8437
▁interface	-8438
▁introduce	-8439
▁justified	-8440
▁lifestyle	-8441
▁locations	-8442
▁messenger	-8443
▁microwave	-8444
▁minecraft	-8445
▁movements	-8446
▁obviously	-8447
▁offensive	-8448
▁organisms	-8449
▁organized	-8450
▁paragraph	-8451
▁performed	-8452
▁petroleum	-8453
▁prisoners	-8454
▁providing	-8455
▁reproduce	-8456
▁resonance	-8457
▁selective	-8458
▁simultane	-8459
▁societies	-8460
▁sociology	-8461
▁softwares	-8462
▁southeast	-8463
▁spiderman	-8464
▁telescope	-8465
▁therefore	-8466
▁vacations	-8467
▁venezuela	-8468
▁voldemort	-8469
▁wonderful	-8470
▁yesterday	-8471
▁acceptance	-8472
▁applicable	-8473
▁behavioral	-8474
▁capitalist	-8475
▁commission	-8476
▁compatible	-8477
▁concerning	-8478
▁containing	-8479
▁correspond	-8480
▁determines	-8481
▁difficulty	-8482
▁enterprise	-8483
▁highschool	-8484
▁indonesian	-8485
▁institutes	-8486
▁instrument	-8487
▁introduced	-8488
▁irrational	-8489
▁liberalism	-8490
▁neutrality	-8491
▁occupation	-8492
▁phenomenon	-8493
▁physicists	-8494
▁preferably	-8495
▁regardless	-8496
▁resolution	-8497
▁scriptures	-8498
▁sociopaths	-8499
▁statements	-8500
▁submitting	-8501
▁supplement	-8502
▁translated	-8503
▁westerners	-8504
▁adaptations	-8505
▁anonymously	-8506
▁antidepress	-8507
▁billionaire	-8508
▁communicate	-8509
▁controlling	-8510
▁corporation	-8511
▁correlation	-8512
▁efficiently	-8513
▁enforcement	-8514
▁functioning	-8515
▁genetically	-8516
▁inspiration	-8517
▁objectively	-8518
▁operational	-8519
▁pornography	-8520
▁programmers	-8521
▁regulations	-8522
▁requirement	-8523
▁respiration	-8524
▁schizophren	-8525
▁achievements	-8526
▁availability	-8527
▁billionaires	-8528
▁compensation	-8529
▁contemporary	-8530
▁conventional	-8531
▁geographical	-8532
▁hypocritical	-8533
▁narcissistic	-8534
▁notification	-8535
▁overwhelming	-8536
▁particularly	-8537
▁postgraduate	-8538
▁quantitative	-8539
▁refrigerator	-8540
▁reproduction	-8541
▁restrictions	-8542
▁surveillance	-8543
▁collaboration	-8544
▁contributions	-8545
▁discriminated	-8546
▁investigation	-8547
▁reinforcement	-8548
▁uncomfortable	-8549
▁characteristic	-8550
▁discrimination	-8551
▁hypothetically	-8552
▁implementation	-8553
▁recommendation	-8554
▁specifications	-8555
▁transformation	-8556
▁internationally	-8557
▁recommendations	-8558
88	-8559
97	-8560
dt	-8561
fi	-8562
hl	-8563
ml	-8564
mw	-8565
ng	-8566
nl	-8567
rc	-8568
rr	-8569
za	-8570
150	-8571
300	-8572
aji	-8573
bir	-8574
bow	-8575
bro	-8576
cam	-8577
cas	-8578
cat	-8579
cho	-8580
dia	-8581
die	-8582
ema	-8583
erk	-8584
gam	-8585
had	-8586
his	-8587
hit	-8588
hop	-8589
hov	-8590
iah	-8591
ila	-8592
ipe	-8593
ipt	-8594
irk	-8595
isa	-8596
jan	-8597
job	-8598
kee	-8599
kel	-8600
kyo	-8601
lay	-8602
lse	-8603
nat	-8604
non	-8605
oen	-8606
oni	-8607
oom	-8608
opl	-8609
org	-8610
osh	-8611
oul	-8612
pse	-8613
rav	-8614
rey	-8615
sen	-8616
sin	-8617
sts	-8618
tti	-8619
uce	-8620
uch	-8621
una	-8622
ups	-8623
vpy	-8624
wik	-8625
yst	-8626
▁37	-8627
▁38	-8628
▁42	-8629
▁72	-8630
▁95	-8631
▁cv	-8632
▁fb	-8633
▁fi	-8634
▁gb	-8635
▁gf	-8636
▁ia	-8637
▁kk	-8638
▁ky	-8639
▁mg	-8640
▁ni	-8641
▁np	-8642
▁nt	-8643
▁om	-8644
▁oz	-8645
▁tb	-8646
▁ux	-8647
▁wb	-8648
▁ws	-8649
▁ya	-8650
1000	-8651
abwe	-8652
adha	-8653
aism	-8654
aker	-8655
ante	-8656
apar	-8657
appy	-8658
apse	-8659
aris	-8660
arus	-8661
asha	-8662
aska	-8663
avan	-8664
aver	-8665
burn	-8666
camp	-8667
card	-8668
cker	-8669
clip	-8670
code	-8671
coln	-8672
comp	-8673
eman	-8674
eros	-8675
flow	-8676
food	-8677
frac	-8678
gian	-8679
hips	-8680
hist	-8681
hoot	-8682
hors	-8683
iced	-8684
igma	-8685
ilia	-8686
ingo	-8687
inks	-8688
iors	-8689
ipal	-8690
irus	-8691
ixel	-8692
keys	-8693
lded	-8694
logy	-8695
lsea	-8696
mail	-8697
mate	-8698
mini	-8699
mony	-8700
nadu	-8701
omes	-8702
omez	-8703
onch	-8704
onds	-8705
oons	-8706
pple	-8707
qual	-8708
quis	-8709
reen	-8710
rers	-8711
rons	-8712
stat	-8713
town	-8714
uary	-8715
uate	-8716
ugal	-8717
usal	-8718
vide	-8719
warf	-8720
wich	-8721
zing	-8722
▁101	-8723
▁155	-8724
▁250	-8725
▁390	-8726
▁400	-8727
▁ack	-8728
▁alk	-8729
▁ank	-8730
▁ari	-8731
▁bca	-8732
▁bms	-8733
▁bob	-8734
▁bog	-8735
▁cad	-8736
▁cav	-8737
▁cct	-8738
▁cfa	-8739
▁css	-8740
▁ctc	-8741
▁doc	-8742
▁dun	-8743
▁dys	-8744
▁edm	-8745
▁ego	-8746
▁enz	-8747
▁erp	-8748
▁feb	-8749
▁frm	-8750
▁gad	-8751
▁gau	-8752
▁gaz	-8753
▁hcl	-8754
▁hub	-8755
▁iod	-8756
▁ipu	-8757
▁isb	-8758
▁ivy	-8759
▁jac	-8760
▁jul	-8761
▁kaz	-8762
▁lau	-8763
▁lpu	-8764
▁mcu	-8765
▁meg	-8766
▁mnc	-8767
▁ner	-8768
▁nfl	-8769
▁nos	-8770
▁oct	-8771
▁odi	-8772
▁ola	-8773
▁pcs	-8774
▁pee	-8775
▁pes	-8776
▁pgp	-8777
▁pir	-8778
▁pit	-8779
▁psu	-8780
▁rex	-8781
▁rss	-8782
▁sax	-8783
▁sme	-8784
▁ssd	-8785
▁thy	-8786
▁tsh	-8787
▁tyr	-8788
▁und	-8789
▁une	-8790
▁upt	-8791
▁vas	-8792
▁vin	-8793
▁wax	-8794
▁wiz	-8795
▁wwe	-8796
▁yrs	-8797
▁yug	-8798
agers	-8799
alaji	-8800
ancer	-8801
anese	-8802
angal	-8803
anges	-8804
arial	-8805
asant	-8806
athan	-8807
bered	-8808
chest	-8809
class	-8810
crast	-8811
donal	-8812
elect	-8813
encer	-8814
ensor	-8815
erals	-8816
eries	-8817
ghter	-8818
gthen	-8819
haust	-8820
hesia	-8821
ience	-8822
inery	-8823
isons	-8824
istol	-8825
iteee	-8826
ivate	-8827
ivers	-8828
ivism	-8829
izant	-8830
leton	-8831
omial	-8832
otton	-8833
oured	-8834
pical	-8835
plain	-8836
plane	-8837
plate	-8838
pless	-8839
ratic	-8840
rator	-8841
ribed	-8842
riers	-8843
sheet	-8844
ships	-8845
stood	-8846
style	-8847
ubali	-8848
ucker	-8849
uries	-8850
urved	-8851
vents	-8852
▁1200	-8853
▁1992	-8854
▁adap	-8855
▁ages	-8856
▁anna	-8857
▁aunt	-8858
▁baja	-8859
▁bats	-8860
▁beer	-8861
▁bend	-8862
▁bern	-8863
▁bias	-8864
▁bioc	-8865
▁bite	-8866
▁blan	-8867
▁bosn	-8868
▁bour	-8869
▁brut	-8870
▁bulk	-8871
▁bump	-8872
▁buoy	-8873
▁bure	-8874
▁carb	-8875
▁cere	-8876
▁chak	-8877
▁chal	-8878
▁chau	-8879
▁chip	-8880
▁cine	-8881
▁cock	-8882
▁conj	-8883
▁cops	-8884
▁cous	-8885
▁crap	-8886
▁craz	-8887
▁crop	-8888
▁dots	-8889
▁duck	-8890
▁dunk	-8891
▁ecos	-8892
▁emer	-8893
▁ends	-8894
▁engg	-8895
▁envy	-8896
▁erad	-8897
▁fist	-8898
▁fond	-8899
▁gary	-8900
▁glue	-8901
▁gmat	-8902
▁grey	-8903
▁hoax	-8904
▁hood	-8905
▁hygi	-8906
▁hype	-8907
▁ibps	-8908
▁intj	-8909
▁ipcc	-8910
▁july	-8911
▁kota	-8912
▁kvpy	-8913
▁lamp	-8914
▁lean	-8915
▁lego	-8916
▁lesb	-8917
▁ling	-8918
▁lion	-8919
▁lith	-8920
▁maps	-8921
▁mask	-8922
▁mate	-8923
▁mini	-8924
▁moms	-8925
▁moth	-8926
▁nasc	-8927
▁nipp	-8928
▁nits	-8929
▁nont	-8930
▁nude	-8931
▁obsc	-8932
▁olds	-8933
▁oval	-8934
▁oven	-8935
▁pays	-8936
▁pion	-8937
▁piss	-8938
▁poop	-8939
▁pose	-8940
▁puzz	-8941
▁ravi	-8942
▁rect	-8943
▁redd	-8944
▁reun	-8945
▁runs	-8946
▁sane	-8947
▁sean	-8948
▁sees	-8949
▁shab	-8950
▁shap	-8951
▁sins	-8952
▁sket	-8953
▁skip	-8954
▁slav	-8955
▁slip	-8956
▁soda	-8957
▁sons	-8958
▁spit	-8959
▁stim	-8960
▁stro	-8961
▁sued	-8962
▁sulf	-8963
▁sund	-8964
▁tear	-8965
▁thus	-8966
▁trib	-8967
▁tube	-8968
▁urge	-8969
▁ussr	-8970
▁vamp	-8971
▁vari	-8972
▁vein	-8973
▁vlog	-8974
▁wand	-8975
▁whit	-8976
▁wins	-8977
▁zimb	-8978
▁zomb	-8979
ateful	-8980
biosis	-8981
clipse	-8982
encing	-8983
ername	-8984
herent	-8985
iables	-8986
icking	-8987
inking	-8988
intend	-8989
mering	-8990
mother	-8991
ometry	-8992
ophyll	-8993
papers	-8994
parent	-8995
pected	-8996
render	-8997
riving	-8998
sexual	-8999
ulator	-9000
veless	-9001
verted	-9002
▁20000	-9003
▁alkal	-9004
▁andre	-9005
▁anton	-9006
▁asper	-9007
▁assam	-9008
▁atroc	-9009
▁azure	-9010
▁balls	-9011
▁beams	-9012
▁bikes	-9013
▁bribe	-9014
▁bumps	-9015
▁bunch	-9016
▁buyer	-9017
▁chris	-9018
▁clash	-9019
▁cliff	-9020
▁climb	-9021
▁comey	-9022
▁coord	-9023
▁doubt	-9024
▁drops	-9025
▁dwarf	-9026
▁eaten	-9027
▁equil	-9028
▁filip	-9029
▁flats	-9030
▁flows	-9031
▁forth	-9032
▁fried	-9033
▁gains	-9034
▁gates	-9035
▁globe	-9036
▁gomez	-9037
▁gonna	-9038
▁grain	-9039
▁grape	-9040
▁guard	-9041
▁henry	-9042
▁inequ	-9043
▁inher	-9044
▁jason	-9045
▁jimmy	-9046
▁kills	-9047
▁lemon	-9048
▁liked	-9049
▁liver	-9050
▁lover	-9051
▁meals	-9052
▁medal	-9053
▁metap	-9054
▁meter	-9055
▁miche	-9056
▁modif	-9057
▁mouse	-9058
▁mysql	-9059
▁naked	-9060
▁naval	-9061
▁ncert	-9062
▁negot	-9063
▁newly	-9064
▁noida	-9065
▁oppon	-9066
▁outer	-9067
▁overp	-9068
▁oxide	-9069
▁paras	-9070
▁parli	-9071
▁pearl	-9072
▁pence	-9073
▁phoen	-9074
▁pitch	-9075
▁pixel	-9076
▁pluto	-9077
▁prere	-9078
▁prone	-9079
▁prose	-9080
▁pulse	-9081
▁ranch	-9082
▁rated	-9083
▁rival	-9084
▁robin	-9085
▁roots	-9086
▁ruled	-9087
▁ruler	-9088
▁sabha	-9089
▁sansk	-9090
▁satan	-9091
▁scars	-9092
▁scorp	-9093
▁seeds	-9094
▁sends	-9095
▁setup	-9096
▁shake	-9097
▁shame	-9098
▁shell	-9099
▁sikhs	-9100
▁skype	-9101
▁snack	-9102
▁spell	-9103
▁split	-9104
▁stats	-9105
▁straw	-9106
▁strip	-9107
▁suits	-9108
▁sulph	-9109
▁sunni	-9110
▁tanks	-9111
▁threw	-9112
▁tires	-9113
▁tobac	-9114
▁toefl	-9115
▁tokyo	-9116
▁trial	-9117
▁trigg	-9118
▁tuber	-9119
▁tyres	-9120
▁unatt	-9121
▁unlim	-9122
▁unmar	-9123
▁vader	-9124
▁vaish	-9125
▁wales	-9126
▁wears	-9127
▁wheat	-9128
▁yield	-9129
donalds	-9130
emption	-9131
ersonal	-9132
esterol	-9133
faction	-9134
icating	-9135
inerary	-9136
issions	-9137
otherap	-9138
ulating	-9139
urvedic	-9140
veloped	-9141
version	-9142
writing	-9143
zerland	-9144
▁201718	-9145
▁accomm	-9146
▁acknow	-9147
▁adoles	-9148
▁allerg	-9149
▁ambani	-9150
▁assess	-9151
▁assets	-9152
▁astral	-9153
▁atomic	-9154
▁avatar	-9155
▁balaji	-9156
▁beside	-9157
▁bharat	-9158
▁borrow	-9159
▁brings	-9160
▁bulgar	-9161
▁candle	-9162
▁clever	-9163
▁clinic	-9164
▁commod	-9165
▁compre	-9166
▁condom	-9167
▁cooper	-9168
▁courts	-9169
▁deduct	-9170
▁denied	-9171
▁deterg	-9172
▁devast	-9173
▁dishon	-9174
▁enroll	-9175
▁excuse	-9176
▁exempt	-9177
▁extrem	-9178
▁fertil	-9179
▁fetish	-9180
▁fights	-9181
▁firing	-9182
▁fourth	-9183
▁frozen	-9184
▁gadget	-9185
▁gather	-9186
▁genius	-9187
▁ghosts	-9188
▁gifted	-9189
▁handed	-9190
▁handic	-9191
▁hating	-9192
▁illust	-9193
▁indoor	-9194
▁injury	-9195
▁issued	-9196
▁itunes	-9197
▁lenovo	-9198
▁libert	-9199
▁licens	-9200
▁liquor	-9201
▁litter	-9202
▁loaded	-9203
▁magent	-9204
▁makeup	-9205
▁manali	-9206
▁manner	-9207
▁maruti	-9208
▁massac	-9209
▁mechat	-9210
▁meters	-9211
▁mixing	-9212
▁morals	-9213
▁mormon	-9214
▁mughal	-9215
▁myopia	-9216
▁naming	-9217
▁napole	-9218
▁neglig	-9219
▁nonpro	-9220
▁orders	-9221
▁owning	-9222
▁oxford	-9223
▁pedest	-9224
▁pilani	-9225
▁pilots	-9226
▁pistol	-9227
▁plates	-9228
▁polish	-9229
▁portra	-9230
▁postal	-9231
▁powder	-9232
▁prophe	-9233
▁propos	-9234
▁quoras	-9235
▁rabies	-9236
▁racing	-9237
▁raping	-9238
▁rapist	-9239
▁reader	-9240
▁remedy	-9241
▁rifles	-9242
▁roller	-9243
▁saturn	-9244
▁scream	-9245
▁segreg	-9246
▁shirts	-9247
▁shorts	-9248
▁spoken	-9249
▁stable	-9250
▁steven	-9251
▁stones	-9252
▁stores	-9253
▁tackle	-9254
▁tennes	-9255
▁terrif	-9256
▁tested	-9257
▁thapar	-9258
▁theism	-9259
▁thumbn	-9260
▁treats	-9261
▁trolls	-9262
▁upwork	-9263
▁vector	-9264
▁vegans	-9265
▁vision	-9266
▁viteee	-9267
▁walker	-9268
▁wheres	-9269
▁wisdom	-9270
▁wishes	-9271
▁zucker	-9272
entially	-9273
esthesia	-9274
function	-9275
interest	-9276
ployment	-9277
standing	-9278
stitutes	-9279
▁absence	-9280
▁adverse	-9281
▁advisor	-9282
▁affects	-9283
▁alexand	-9284
▁analyze	-9285
▁anatomy	-9286
▁approve	-9287
▁arduino	-9288
▁backlog	-9289
▁barrier	-9290
▁batting	-9291
▁beating	-9292
▁borders	-9293
▁boredom	-9294
▁bowling	-9295
▁bravery	-9296
▁bschool	-9297
▁ceiling	-9298
▁charles	-9299
▁chelsea	-9300
▁circumc	-9301
▁collage	-9302
▁combine	-9303
▁commute	-9304
▁compete	-9305
▁counted	-9306
▁creates	-9307
▁credits	-9308
▁cycling	-9309
▁decides	-9310
▁decline	-9311
▁depends	-9312
▁designs	-9313
▁diagram	-9314
▁dialect	-9315
▁eclipse	-9316
▁emperor	-9317
▁entered	-9318
▁envious	-9319
▁exagger	-9320
▁excuses	-9321
▁exhaust	-9322
▁experts	-9323
▁explode	-9324
▁exposed	-9325
▁extinct	-9326
▁fantasy	-9327
▁farming	-9328
▁fascism	-9329
▁fasting	-9330
▁filling	-9331
▁forming	-9332
▁goldman	-9333
▁granted	-9334
▁hanging	-9335
▁heating	-9336
▁hormone	-9337
▁ignored	-9338
▁illiter	-9339
▁imagine	-9340
▁impeach	-9341
▁injured	-9342
▁intense	-9343
▁jogging	-9344
▁judaism	-9345
▁leftist	-9346
▁licence	-9347
▁lincoln	-9348
▁listing	-9349
▁lottery	-9350
▁managed	-9351
▁melting	-9352
▁menstru	-9353
▁migrate	-9354
▁mileage	-9355
▁mixture	-9356
▁mystery	-9357
▁ontario	-9358
▁optical	-9359
▁orchest	-9360
▁origins	-9361
▁painted	-9362
▁panties	-9363
▁parking	-9364
▁partial	-9365
▁pension	-9366
▁persian	-9367
▁phrases	-9368
▁pimples	-9369
▁pointer	-9370
▁powered	-9371
▁prelims	-9372
▁princet	-9373
▁printer	-9374
▁procure	-9375
▁quarter	-9376
▁raising	-9377
▁rappers	-9378
▁referen	-9379
▁romania	-9380
▁ruining	-9381
▁sarcasm	-9382
▁screens	-9383
▁seeking	-9384
▁sensors	-9385
▁sibling	-9386
▁signals	-9387
▁sisters	-9388
▁skilled	-9389
▁spatial	-9390
▁stealth	-9391
▁streams	-9392
▁submiss	-9393
▁suppose	-9394
▁surname	-9395
▁tactics	-9396
▁theists	-9397
▁thermal	-9398
▁tibetan	-9399
▁torture	-9400
▁traders	-9401
▁trigger	-9402
▁trilogy	-9403
▁triumph	-9404
▁trusted	-9405
▁unhappy	-9406
▁updated	-9407
▁uranium	-9408
▁vikings	-9409
▁villain	-9410
▁warning	-9411
▁warrant	-9412
▁zionist	-9413
boyfriend	-9414
ciousness	-9415
condition	-9416
odynamics	-9417
▁advocate	-9418
▁airplane	-9419
▁allotted	-9420
▁ancestry	-9421
▁answered	-9422
▁apparent	-9423
▁arranged	-9424
▁audition	-9425
▁avengers	-9426
▁banglore	-9427
▁bathroom	-9428
▁berkeley	-9429
▁buddhist	-9430
▁claiming	-9431
▁clearing	-9432
▁collapse	-9433
▁combined	-9434
▁complain	-9435
▁confront	-9436
▁contents	-9437
▁contrast	-9438
▁controll	-9439
▁coverage	-9440
▁creators	-9441
▁cylinder	-9442
▁deceased	-9443
▁declared	-9444
▁deleting	-9445
▁democrat	-9446
▁deployed	-9447
▁detected	-9448
▁determin	-9449
▁diameter	-9450
▁disagree	-9451
▁dominant	-9452
▁dressing	-9453
▁elevator	-9454
▁embedded	-9455
▁exciting	-9456
▁founders	-9457
▁guidance	-9458
▁himachal	-9459
▁holidays	-9460
▁homeland	-9461
▁homeless	-9462
▁hundreds	-9463
▁ignoring	-9464
▁impacted	-9465
▁incident	-9466
▁informed	-9467
▁injected	-9468
▁insulted	-9469
▁intended	-9470
▁journals	-9471
▁launched	-9472
▁mainland	-9473
▁maturity	-9474
▁meetings	-9475
▁memorial	-9476
▁midnight	-9477
▁missiles	-9478
▁mistaken	-9479
▁mortgage	-9480
▁motivate	-9481
▁occupied	-9482
▁olympics	-9483
▁parkland	-9484
▁periodic	-9485
▁persuade	-9486
▁populism	-9487
▁preserve	-9488
▁princess	-9489
▁priority	-9490
▁probably	-9491
▁procrast	-9492
▁promoted	-9493
▁proposed	-9494
▁publicly	-9495
▁recorded	-9496
▁reserved	-9497
▁robotics	-9498
▁sanskrit	-9499
▁shipping	-9500
▁shocking	-9501
▁shortest	-9502
▁smartest	-9503
▁socalled	-9504
▁societal	-9505
▁speeding	-9506
▁spending	-9507
▁supplier	-9508
▁survivor	-9509
▁template	-9510
▁terminal	-9511
▁thorough	-9512
▁timeline	-9513
▁trolling	-9514
▁username	-9515
▁vertical	-9516
▁workshop	-9517
▁zimbabwe	-9518
imensional	-9519
▁actresses	-9520
▁ancestors	-9521
▁anonymity	-9522
▁apologize	-9523
▁applicant	-9524
▁attempted	-9525
▁automated	-9526
▁ayurvedic	-9527
▁backwards	-9528
▁badminton	-9529
▁bengaluru	-9530
▁breakdown	-9531
▁butterfly	-9532
▁cancelled	-9533
▁capacitor	-9534
▁carbonate	-9535
▁chemicals	-9536
▁childrens	-9537
▁cigarette	-9538
▁cognizant	-9539
▁collected	-9540
▁converter	-9541
▁correctly	-9542
▁criticism	-9543
▁criticize	-9544
▁databases	-9545
▁described	-9546
▁detection	-9547
▁dictators	-9548
▁digestion	-9549
▁directors	-9550
▁drawbacks	-9551
▁economist	-9552
▁ecosystem	-9553
▁emergency	-9554
▁exclusive	-9555
▁expanding	-9556
▁financing	-9557
▁freelance	-9558
▁geography	-9559
▁graduated	-9560
▁hypocrisy	-9561
▁imaginary	-9562
▁incorrect	-9563
▁inflation	-9564
▁instances	-9565
▁insulting	-9566
▁integrate	-9567
▁intuitive	-9568
▁itinerary	-9569
▁jewellery	-9570
▁literally	-9571
▁machinery	-9572
▁marriages	-9573
▁mentality	-9574
▁mountains	-9575
▁musicians	-9576
▁mythology	-9577
▁oxidation	-9578
▁passwords	-9579
▁photosynt	-9580
▁poisoning	-9581
▁principle	-9582
▁producing	-9583
▁raspberry	-9584
▁remaining	-9585
▁replicate	-9586
▁residence	-9587
▁respected	-9588
▁resulting	-9589
▁september	-9590
▁sexuality	-9591
▁shootings	-9592
▁signature	-9593
▁socialism	-9594
▁socialist	-9595
▁streaming	-9596
▁submitted	-9597
▁succeeded	-9598
▁suppliers	-9599
▁supported	-9600
▁surrender	-9601
▁switching	-9602
▁symbiosis	-9603
▁tamilnadu	-9604
▁teachings	-9605
▁temporary	-9606
▁translate	-9607
▁unlimited	-9608
▁unmarried	-9609
▁volunteer	-9610
▁weinstein	-9611
▁wholesale	-9612
▁wikipedia	-9613
▁witnesses	-9614
▁additional	-9615
▁afterwards	-9616
▁aggressive	-9617
▁algorithms	-9618
▁ambassador	-9619
▁antisocial	-9620
▁assistance	-9621
▁bankruptcy	-9622
▁borderline	-9623
▁boyfriends	-9624
▁categories	-9625
▁collection	-9626
▁collective	-9627
▁communists	-9628
▁compassion	-9629
▁conscience	-9630
▁consistent	-9631
▁constraint	-9632
▁controlled	-9633
▁converting	-9634
▁curriculum	-9635
▁disability	-9636
▁discussion	-9637
▁earthquake	-9638
▁economical	-9639
▁elementary	-9640
▁foundation	-9641
▁highlights	-9642
▁humiliated	-9643
▁impressive	-9644
▁indirectly	-9645
▁inevitable	-9646
▁intentions	-9647
▁intolerant	-9648
▁inventions	-9649
▁irritating	-9650
▁journalism	-9651
▁laboratory	-9652
▁legitimate	-9653
▁monitoring	-9654
▁overweight	-9655
▁parliament	-9656
▁protecting	-9657
▁recruiters	-9658
▁reputation	-9659
▁stammering	-9660
▁stationary	-9661
▁strengthen	-9662
▁stretching	-9663
▁superpower	-9664
▁telecommun	-9665
▁transcript	-9666
▁zuckerberg	-9667
▁acknowledge	-9668
▁antisemitic	-9669
▁approximate	-9670
▁australians	-9671
▁cholesterol	-9672
▁comparative	-9673
▁composition	-9674
▁consultancy	-9675
▁contributed	-9676
▁destruction	-9677
▁diffraction	-9678
▁experiments	-9679
▁homosexuals	-9680
▁imagination	-9681
▁institution	-9682
▁instruction	-9683
▁interaction	-9684
▁intercourse	-9685
▁marketplace	-9686
▁palestinian	-9687
▁politically	-9688
▁protestants	-9689
▁residential	-9690
▁smartphones	-9691
▁sponsorship	-9692
▁spreadsheet	-9693
▁stereotypes	-9694
▁supplements	-9695
▁switzerland	-9696
▁technically	-9697
▁temporarily	-9698
▁theoretical	-9699
▁threatening	-9700
▁underground	-9701
▁bodybuilding	-9702
▁capabilities	-9703
▁championship	-9704
▁conservation	-9705
▁continuously	-9706
▁corporations	-9707
▁economically	-9708
▁interference	-9709
▁introduction	-9710
▁masturbating	-9711
▁mechatronics	-9712
▁microbiology	-9713
▁satisfaction	-9714
▁scholarships	-9715
▁transformers	-9716
▁unattractive	-9717
▁unemployment	-9718
▁accommodation	-9719
▁consciousness	-9720
▁entertainment	-9721
▁homosexuality	-9722
▁inspirational	-9723
▁manufacturers	-9724
▁organisations	-9725
▁significantly	-9726
▁certifications	-9727
▁constitutional	-9728
▁qualifications	-9729
▁simultaneously	-9730
▁specialization	-9731
▁electromagnetic	-9732
▁psychologically	-9733
23	-9734
38	-9735
52	-9736
85	-9737
90	-9738
aa	-9739
dd	-9740
eb	-9741
ec	-9742
fd	-9743
hr	-9744
jj	-9745
km	-9746
ko	-9747
pg	-9748
po	-9749
sl	-9750
tc	-9751
yn	-9752
adi	-9753
aha	-9754
aks	-9755
arh	-9756
aro	-9757
bid	-9758
boo	-9759
bor	-9760
cip	-9761
cod	-9762
ctu	-9763
cur	-9764
dam	-9765
dge	-9766
dig	-9767
din	-9768
dum	-9769
eem	-9770
era	-9771
esh	-9772
eto	-9773
eve	-9774
fin	-9775
fol	-9776
for	-9777
gon	-9778
hil	-9779
him	-9780
hou	-9781
hru	-9782
hya	-9783
igo	-9784
imm	-9785
iro	-9786
jah	-9787
jay	-9788
jri	-9789
kim	-9790
kin	-9791
lar	-9792
loc	-9793
mle	-9794
mod	-9795
nav	-9796
nce	-9797
nit	-9798
nty	-9799
odi	-9800
ogy	-9801
oin	-9802
oli	-9803
olo	-9804
omi	-9805
ona	-9806
ono	-9807
oys	-9808
pen	-9809
pex	-9810
ppy	-9811
raj	-9812
run	-9813
rus	-9814
sty	-9815
thy	-9816
uci	-9817
uda	-9818
udy	-9819
ule	-9820
ulu	-9821
uro	-9822
vor	-9823
wah	-9824
was	-9825
yas	-9826
zor	-9827
▁47	-9828
▁83	-9829
▁84	-9830
▁89	-9831
▁au	-9832
▁ec	-9833
▁fc	-9834
▁jh	-9835
▁jr	-9836
▁kv	-9837
▁ln	-9838
▁lt	-9839
▁nj	-9840
▁qa	-9841
▁ry	-9842
▁tc	-9843
▁tn	-9844
▁tx	-9845
▁ui	-9846
▁vo	-9847
▁xl	-9848
▁xr	-9849
abet	-9850
abis	-9851
adim	-9852
aksh	-9853
akti	-9854
andy	-9855
anks	-9856
aphy	-9857
arct	-9858
ares	-9859
arma	-9860
arms	-9861
aroo	-9862
asis	-9863
bain	-9864
bara	-9865
base	-9866
bble	-9867
bite	-9868
bron	-9869
buck	-9870
cile	-9871
ckin	-9872
cont	-9873
cuss	-9874
dess	-9875
eing	-9876
emen	-9877
erer	-9878
fere	-9879
find	-9880
fram	-9881
gary	-9882
gcse	-9883
gent	-9884
gles	-9885
haps	-9886
hend	-9887
hoka	-9888
hole	-9889
hydr	-9890
icer	-9891
idel	-9892
iece	-9893
ifer	-9894
igas	-9895
inav	-9896
inch	-9897
inds	-9898
inos	-9899
inst	-9900
isal	-9901
isha	-9902
itic	-9903
itte	-9904
itya	-9905
ixes	-9906
izzy	-9907
keep	-9908
kill	-9909
lege	-9910
lete	-9911
leys	-9912
lord	-9913
lose	-9914
mare	-9915
mill	-9916
neum	-9917
nite	-9918
nity	-9919
ocks	-9920
oids	-9921
oked	-9922
olit	-9923
omic	-9924
onex	-9925
ongs	-9926
opic	-9927
orie	-9928
orig	-9929
osys	-9930
otas	-9931
otle	-9932
oved	-9933
pack	-9934
paid	-9935
past	-9936
phor	-9937
plan	-9938
pted	-9939
raft	-9940
rane	-9941
rape	-9942
riff	-9943
rots	-9944
rous	-9945
sell	-9946
ssed	-9947
step	-9948
test	-9949
ucky	-9950
uity	-9951
ulpt	-9952
uman	-9953
umar	-9954
umni	-9955
uper	-9956
urgy	-9957
utos	-9958
verb	-9959
will	-9960
xies	-9961
yard	-9962
ylum	-9963
ymes	-9964
zech	-9965
▁103	-9966
▁121	-9967
▁125	-9968
▁128	-9969
▁130	-9970
▁140	-9971
▁195	-9972
▁220	-9973
▁410	-9974
▁450	-9975
▁511	-9976
▁800	-9977
▁abd	-9978
▁aka	-9979
▁amd	-9980
▁amu	-9981
▁arc	-9982
▁arn	-9983
▁bak	-9984
▁bim	-9985
▁blo	-9986
▁bmw	-9987
▁bod	-9988
▁bry	-9989
▁cbi	-9990
▁chi	-9991
▁cnn	-9992
▁cof	-9993
▁csc	-9994
▁dtu	-9995
▁dvd	-9996
▁dyn	-9997
▁eli	-9998
▁ern	-9999
▁eru	-10000
▁esp	-10001
▁ets	-10002
▁fif	-10003
▁gpu	-10004
▁gta	-10005
▁gut	-10006
▁haz	-10007
▁hey	-10008
▁hoc	-10009
▁hoo	-10010
▁hsc	-10011
▁ibm	-10012
▁inh	-10013
▁ish	-10014
▁isi	-10015
▁jar	-10016
▁jaw	-10017
▁jay	-10018
▁jen	-10019
▁kag	-10020
▁kam	-10021
▁kin	-10022
▁kkk	-10023
▁kos	-10024
▁ktm	-10025
▁lax	-10026
▁laz	-10027
▁lex	-10028
▁lud	-10029
▁mlb	-10030
▁mri	-10031
▁nac	-10032
▁nam	-10033
▁nir	-10034
▁nou	-10035
▁nov	-10036
▁nud	-10037
▁ohi	-10038
▁pap	-10039
▁pcb	-10040
▁psi	-10041
▁pus	-10042
▁pvc	-10043
▁ras	-10044
▁rav	-10045
▁rcc	-10046
▁rhy	-10047
▁rib	-10048
▁rna	-10049
▁ron	-10050
▁ros	-10051
▁ski	-10052
▁slo	-10053
▁sms	-10054
▁sow	-10055
▁spr	-10056
▁tak	-10057
▁tha	-10058
▁tie	-10059
▁tin	-10060
▁toe	-10061
▁tub	-10062
▁ucs	-10063
▁uda	-10064
▁ugc	-10065
▁unb	-10066
▁url	-10067
▁uts	-10068
▁vod	-10069
▁von	-10070
▁wsj	-10071
▁xen	-10072
▁xii	-10073
▁zen	-10074
▁zoo	-10075
agues	-10076
akash	-10077
akers	-10078
allas	-10079
ansas	-10080
arios	-10081
arium	-10082
asive	-10083
astic	-10084
atics	-10085
atter	-10086
avage	-10087
avail	-10088
bally	-10089
bleed	-10090
bucks	-10091
built	-10092
certs	-10093
chers	-10094
child	-10095
cible	-10096
coins	-10097
conut	-10098
ctive	-10099
dians	-10100
dress	-10101
duled	-10102
eling	-10103
enium	-10104
erate	-10105
erver	-10106
ested	-10107
folio	-10108
habit	-10109
heads	-10110
heric	-10111
holes	-10112
ician	-10113
icide	-10114
igarh	-10115
ighth	-10116
ijing	-10117
illes	-10118
imize	-10119
indal	-10120
inian	-10121
iscus	-10122
isher	-10123
itary	-10124
itled	-10125
izont	-10126
liest	-10127
lying	-10128
marks	-10129
oever	-10130
ogram	-10131
olete	-10132
olics	-10133
oline	-10134
oning	-10135
ontin	-10136
orced	-10137
osion	-10138
otism	-10139
oween	-10140
parts	-10141
pient	-10142
posed	-10143
rants	-10144
rived	-10145
scope	-10146
senal	-10147
story	-10148
tered	-10149
thrit	-10150
throp	-10151
ubers	-10152
udeau	-10153
ulent	-10154
uracy	-10155
uster	-10156
video	-10157
wable	-10158
water	-10159
white	-10160
words	-10161
▁2050	-10162
▁4000	-10163
▁adul	-10164
▁aest	-10165
▁aids	-10166
▁alot	-10167
▁aper	-10168
▁azer	-10169
▁bacc	-10170
▁bags	-10171
▁bali	-10172
▁bapt	-10173
▁bass	-10174
▁bdsm	-10175
▁bees	-10176
▁belt	-10177
▁bhub	-10178
▁bios	-10179
▁bold	-10180
▁brid	-10181
▁bsnl	-10182
▁bulb	-10183
▁bush	-10184
▁carn	-10185
▁cctv	-10186
▁cerv	-10187
▁chef	-10188
▁clan	-10189
▁coil	-10190
▁cort	-10191
▁csir	-10192
▁cuba	-10193
▁cycl	-10194
▁dare	-10195
▁deaf	-10196
▁deck	-10197
▁dell	-10198
▁desi	-10199
▁dess	-10200
▁dhar	-10201
▁dian	-10202
▁dron	-10203
▁egot	-10204
▁epit	-10205
▁ethn	-10206
▁fart	-10207
▁feas	-10208
▁fork	-10209
▁gest	-10210
▁glor	-10211
▁gluc	-10212
▁goat	-10213
▁gran	-10214
▁guru	-10215
▁gyps	-10216
▁hipp	-10217
▁impr	-10218
▁inch	-10219
▁intr	-10220
▁irre	-10221
▁jams	-10222
▁jazz	-10223
▁junk	-10224
▁kang	-10225
▁kurt	-10226
▁kuwa	-10227
▁lact	-10228
▁lank	-10229
▁leaf	-10230
▁leia	-10231
▁lobb	-10232
▁loot	-10233
▁mant	-10234
▁melo	-10235
▁meme	-10236
▁mere	-10237
▁mesh	-10238
▁mush	-10239
▁nato	-10240
▁nost	-10241
▁noun	-10242
▁nuke	-10243
▁null	-10244
▁olig	-10245
▁palm	-10246
▁pard	-10247
▁peep	-10248
▁perf	-10249
▁pipe	-10250
▁poet	-10251
▁popc	-10252
▁pope	-10253
▁pref	-10254
▁psus	-10255
▁rack	-10256
▁rage	-10257
▁rama	-10258
▁reag	-10259
▁roth	-10260
▁rows	-10261
▁saas	-10262
▁sake	-10263
▁sang	-10264
▁saus	-10265
▁slap	-10266
▁soap	-10267
▁sour	-10268
▁stal	-10269
▁stub	-10270
▁surf	-10271
▁taco	-10272
▁tomb	-10273
▁tors	-10274
▁toys	-10275
▁trim	-10276
▁unst	-10277
▁urdu	-10278
▁vera	-10279
▁vets	-10280
▁vita	-10281
▁wage	-10282
▁ware	-10283
▁wats	-10284
▁weve	-10285
▁wifi	-10286
▁woke	-10287
▁wolf	-10288
▁wool	-10289
▁xray	-10290
adimir	-10291
akhand	-10292
anjali	-10293
antism	-10294
apable	-10295
arrhea	-10296
curric	-10297
erated	-10298
ership	-10299
finite	-10300
gemini	-10301
ibrium	-10302
iously	-10303
ishing	-10304
istent	-10305
isting	-10306
jriwal	-10307
lliant	-10308
metics	-10309
mology	-10310
nected	-10311
nesota	-10312
nostic	-10313
omorph	-10314
online	-10315
oplast	-10316
orable	-10317
orcing	-10318
overed	-10319
perial	-10320
person	-10321
points	-10322
porate	-10323
repres	-10324
uctant	-10325
wahati	-10326
wegian	-10327
▁50000	-10328
▁accum	-10329
▁adams	-10330
▁agend	-10331
▁aimed	-10332
▁alexa	-10333
▁alger	-10334
▁align	-10335
▁alleg	-10336
▁allig	-10337
▁ammon	-10338
▁antib	-10339
▁antiv	-10340
▁arise	-10341
▁arjun	-10342
▁audit	-10343
▁auton	-10344
▁autot	-10345
▁awake	-10346
▁backl	-10347
▁bands	-10348
▁bhatt	-10349
▁bitch	-10350
▁blank	-10351
▁blasp	-10352
▁blunt	-10353
▁bombs	-10354
▁boxer	-10355
▁brick	-10356
▁brits	-10357
▁bruce	-10358
▁brush	-10359
▁bully	-10360
▁burma	-10361
▁buses	-10362
▁calam	-10363
▁cambo	-10364
▁camel	-10365
▁chatb	-10366
▁chile	-10367
▁chord	-10368
▁chose	-10369
▁chuck	-10370
▁clerk	-10371
▁clone	-10372
▁cours	-10373
▁craft	-10374
▁crank	-10375
▁creed	-10376
▁czech	-10377
▁decor	-10378
▁defic	-10379
▁degra	-10380
▁delic	-10381
▁demer	-10382
▁dhoni	-10383
▁digit	-10384
▁drake	-10385
▁earns	-10386
▁encry	-10387
▁escal	-10388
▁expos	-10389
▁extro	-10390
▁faces	-10391
▁fedex	-10392
▁finds	-10393
▁flaws	-10394
▁float	-10395
▁frogs	-10396
▁gears	-10397
▁ghana	-10398
▁grasp	-10399
▁grass	-10400
▁greed	-10401
▁gross	-10402
▁helic	-10403
▁hello	-10404
▁heter	-10405
▁himal	-10406
▁hobby	-10407
▁hosts	-10408
▁igcse	-10409
▁indul	-10410
▁intra	-10411
▁invit	-10412
▁isare	-10413
▁jacob	-10414
▁jadav	-10415
▁kelly	-10416
▁koran	-10417
▁kumar	-10418
▁kurds	-10419
▁laure	-10420
▁lewis	-10421
▁lifes	-10422
▁logan	-10423
▁logos	-10424
▁lucid	-10425
▁maker	-10426
▁manic	-10427
▁mckin	-10428
▁membr	-10429
▁memes	-10430
▁miami	-10431
▁milky	-10432
▁modes	-10433
▁moore	-10434
▁moron	-10435
▁nasty	-10436
▁nehru	-10437
▁nikon	-10438
▁nmims	-10439
▁nonch	-10440
▁nonph	-10441
▁nonve	-10442
▁olive	-10443
▁oscar	-10444
▁overt	-10445
▁panda	-10446
▁panic	-10447
▁parad	-10448
▁parks	-10449
▁paths	-10450
▁penny	-10451
▁percy	-10452
▁perks	-10453
▁pluck	-10454
▁pneum	-10455
▁pound	-10456
▁quote	-10457
▁rajiv	-10458
▁ramad	-10459
▁rapid	-10460
▁rehab	-10461
▁remem	-10462
▁repay	-10463
▁reper	-10464
▁revel	-10465
▁revol	-10466
▁rider	-10467
▁ringt	-10468
▁robot	-10469
▁sachs	-10470
▁saint	-10471
▁scott	-10472
▁selfd	-10473
▁seper	-10474
▁seven	-10475
▁simps	-10476
▁sized	-10477
▁spani	-10478
▁spare	-10479
▁spike	-10480
▁spite	-10481
▁spray	-10482
▁stair	-10483
▁stove	-10484
▁sunny	-10485
▁swing	-10486
▁tales	-10487
▁tense	-10488
▁theoc	-10489
▁tirup	-10490
▁tomat	-10491
▁tower	-10492
▁towns	-10493
▁tweet	-10494
▁twent	-10495
▁twins	-10496
▁ultra	-10497
▁umbre	-10498
▁unity	-10499
▁upgra	-10500
▁usmle	-10501
▁utter	-10502
▁valve	-10503
▁venus	-10504
▁vijay	-10505
▁wbjee	-10506
▁whirl	-10507
▁wides	-10508
▁wipro	-10509
▁witch	-10510
▁wound	-10511
▁wrink	-10512
▁wrist	-10513
autical	-10514
autions	-10515
charged	-10516
ciously	-10517
defense	-10518
entials	-10519
fulness	-10520
glasses	-10521
ictions	-10522
induced	-10523
intendo	-10524
ipation	-10525
itality	-10526
itivity	-10527
izontal	-10528
natural	-10529
opathic	-10530
organic	-10531
ository	-10532
ristian	-10533
technic	-10534
ulative	-10535
unities	-10536
vention	-10537
▁201819	-10538
▁aborig	-10539
▁acidic	-10540
▁acquis	-10541
▁advers	-10542
▁aerial	-10543
▁alumni	-10544
▁andrew	-10545
▁antich	-10546
▁apples	-10547
▁arvind	-10548
▁ashoka	-10549
▁aspect	-10550
▁assign	-10551
▁bacter	-10552
▁bhagat	-10553
▁bleach	-10554
▁blocks	-10555
▁boomer	-10556
▁boxers	-10557
▁bronch	-10558
▁bubble	-10559
▁buddha	-10560
▁burger	-10561
▁cables	-10562
▁calend	-10563
▁cannon	-10564
▁capita	-10565
▁cardio	-10566
▁carter	-10567
▁caucas	-10568
▁cement	-10569
▁chains	-10570
▁cheque	-10571
▁childs	-10572
▁cleans	-10573
▁cobain	-10574
▁colomb	-10575
▁column	-10576
▁comput	-10577
▁condem	-10578
▁confed	-10579
▁conjun	-10580
▁cooked	-10581
▁copied	-10582
▁cotton	-10583
▁cousin	-10584
▁craigs	-10585
▁crying	-10586
▁curved	-10587
▁dallas	-10588
▁danish	-10589
▁dealer	-10590
▁defect	-10591
▁deform	-10592
▁depriv	-10593
▁desper	-10594
▁detain	-10595
▁docker	-10596
▁drinks	-10597
▁dublin	-10598
▁durant	-10599
▁ebooks	-10600
▁edward	-10601
▁eighth	-10602
▁encoun	-10603
▁entang	-10604
▁escort	-10605
▁essays	-10606
▁expert	-10607
▁explos	-10608
▁fairly	-10609
▁fidget	-10610
▁finals	-10611
▁fitted	-10612
▁fixing	-10613
▁flames	-10614
▁foster	-10615
▁freely	-10616
▁friday	-10617
▁fridge	-10618
▁gentle	-10619
▁ginger	-10620
▁gotten	-10621
▁grader	-10622
▁harvey	-10623
▁headqu	-10624
▁heated	-10625
▁heroes	-10626
▁hispan	-10627
▁holmes	-10628
▁humane	-10629
▁humble	-10630
▁iitjee	-10631
▁incons	-10632
▁insane	-10633
▁insert	-10634
▁invade	-10635
▁ironic	-10636
▁ivanka	-10637
▁jindal	-10638
▁jongun	-10639
▁judges	-10640
▁jumped	-10641
▁kanpur	-10642
▁labour	-10643
▁landed	-10644
▁latino	-10645
▁legend	-10646
▁lethal	-10647
▁lights	-10648
▁liking	-10649
▁logout	-10650
▁lovers	-10651
▁luxury	-10652
▁madras	-10653
▁mainly	-10654
▁mature	-10655
▁mentor	-10656
▁merlin	-10657
▁microm	-10658
▁minded	-10659
▁miscon	-10660
▁monica	-10661
▁mosque	-10662
▁museum	-10663
▁mysore	-10664
▁nearly	-10665
▁neuros	-10666
▁norway	-10667
▁notify	-10668
▁nougat	-10669
▁nurses	-10670
▁occurs	-10671
▁opened	-10672
▁outfit	-10673
▁palpat	-10674
▁persec	-10675
▁photon	-10676
▁pierre	-10677
▁platin	-10678
▁pocket	-10679
▁polite	-10680
▁prayer	-10681
▁profic	-10682
▁proton	-10683
▁queens	-10684
▁reboot	-10685
▁recess	-10686
▁reddit	-10687
▁reflex	-10688
▁revise	-10689
▁ripple	-10690
▁rising	-10691
▁rotate	-10692
▁rulers	-10693
▁scopes	-10694
▁sculpt	-10695
▁seduce	-10696
▁senate	-10697
▁sexism	-10698
▁shakes	-10699
▁sikkim	-10700
▁silent	-10701
▁sleepy	-10702
▁slowed	-10703
▁sovere	-10704
▁speaks	-10705
▁spider	-10706
▁spinal	-10707
▁stands	-10708
▁static	-10709
▁statue	-10710
▁stitch	-10711
▁storms	-10712
▁styles	-10713
▁submar	-10714
▁subway	-10715
▁suited	-10716
▁suprem	-10717
▁suzuki	-10718
▁thread	-10719
▁titles	-10720
▁tossed	-10721
▁toyota	-10722
▁traine	-10723
▁trains	-10724
▁trauma	-10725
▁trophy	-10726
▁turing	-10727
▁unborn	-10728
▁unreal	-10729
▁upvote	-10730
▁viswan	-10731
▁warren	-10732
▁weaker	-10733
▁widely	-10734
▁wilson	-10735
▁wolver	-10736
▁writes	-10737
ceptions	-10738
computer	-10739
ferences	-10740
hemistry	-10741
historic	-10742
ilateral	-10743
ilingual	-10744
ocentric	-10745
osterone	-10746
otherapy	-10747
ountered	-10748
quisites	-10749
speaking	-10750
uttering	-10751
▁accents	-10752
▁alltime	-10753
▁amongst	-10754
▁anthrop	-10755
▁apparel	-10756
▁arsenal	-10757
▁atheism	-10758
▁authors	-10759
▁avoided	-10760
▁backend	-10761
▁balloon	-10762
▁bananas	-10763
▁banning	-10764
▁beatles	-10765
▁beloved	-10766
▁billing	-10767
▁blanket	-10768
▁booking	-10769
▁brahmin	-10770
▁briefly	-10771
▁bullets	-10772
▁bullied	-10773
▁burning	-10774
▁calorie	-10775
▁centers	-10776
▁charger	-10777
▁chromos	-10778
▁chronic	-10779
▁classic	-10780
▁cleared	-10781
▁clicked	-10782
▁coconut	-10783
▁colored	-10784
▁colours	-10785
▁columns	-10786
▁compact	-10787
▁complim	-10788
▁confirm	-10789
▁contrad	-10790
▁cooling	-10791
▁costume	-10792
▁council	-10793
▁creator	-10794
▁cruelty	-10795
▁crystal	-10796
▁decimal	-10797
▁declare	-10798
▁degener	-10799
▁delayed	-10800
▁desires	-10801
▁diction	-10802
▁disrupt	-10803
▁distant	-10804
▁distort	-10805
▁dropper	-10806
▁dumping	-10807
▁dunkirk	-10808
▁dynasty	-10809
▁edition	-10810
▁energet	-10811
▁enfield	-10812
▁engaged	-10813
▁enzymes	-10814
▁equator	-10815
▁erosion	-10816
▁evening	-10817
▁exhibit	-10818
▁expired	-10819
▁explore	-10820
▁fathers	-10821
▁figures	-10822
▁fingern	-10823
▁fingers	-10824
▁flexbox	-10825
▁foolish	-10826
▁freezer	-10827
▁fucking	-10828
▁futures	-10829
▁gadgets	-10830
▁generic	-10831
▁grammat	-10832
▁grocery	-10833
▁hawking	-10834
▁highway	-10835
▁hitting	-10836
▁hobbies	-10837
▁holders	-10838
▁impacts	-10839
▁imposed	-10840
▁infosys	-10841
▁inhuman	-10842
▁inmates	-10843
▁instant	-10844
▁invited	-10845
▁jinping	-10846
▁jupiter	-10847
▁kurdish	-10848
▁lecture	-10849
▁linking	-10850
▁literal	-10851
▁logical	-10852
▁loyalty	-10853
▁lucknow	-10854
▁magical	-10855
▁mailing	-10856
▁mandela	-10857
▁manipur	-10858
▁mapping	-10859
▁massach	-10860
▁miracle	-10861
▁monster	-10862
▁mustard	-10863
▁neglect	-10864
▁newtons	-10865
▁nonline	-10866
▁oneplus	-10867
▁oppress	-10868
▁pacific	-10869
▁pathway	-10870
▁perhaps	-10871
▁phoenix	-10872
▁picking	-10873
▁pioneer	-10874
▁polymer	-10875
▁precise	-10876
▁prototy	-10877
▁pumping	-10878
▁rebuild	-10879
▁reforms	-10880
▁refuses	-10881
▁remarks	-10882
▁renting	-10883
▁reserve	-10884
▁russell	-10885
▁secrets	-10886
▁sectors	-10887
▁servers	-10888
▁session	-10889
▁shaving	-10890
▁shelter	-10891
▁shipped	-10892
▁shivaji	-10893
▁shorter	-10894
▁signify	-10895
▁singers	-10896
▁stanley	-10897
▁statues	-10898
▁sucking	-10899
▁superst	-10900
▁symptom	-10901
▁tattoos	-10902
▁textile	-10903
▁thunder	-10904
▁tobacco	-10905
▁tonight	-10906
▁touches	-10907
▁trainer	-10908
▁trapped	-10909
▁treason	-10910
▁trudeau	-10911
▁tshirts	-10912
▁turbine	-10913
▁udaipur	-10914
▁ukraine	-10915
▁utility	-10916
▁vaginal	-10917
▁variety	-10918
▁venture	-10919
▁violate	-10920
▁viruses	-10921
▁walmart	-10922
▁weights	-10923
▁welding	-10924
americans	-10925
ciliation	-10926
conscious	-10927
▁accuracy	-10928
▁adjusted	-10929
▁admitted	-10930
▁alkaline	-10931
▁allowing	-10932
▁alphabet	-10933
▁animated	-10934
▁aperture	-10935
▁appeared	-10936
▁armenian	-10937
▁aspiring	-10938
▁athletic	-10939
▁attacked	-10940
▁attracts	-10941
▁avoiding	-10942
▁bahubali	-10943
▁bhubanes	-10944
▁billions	-10945
▁bloggers	-10946
▁blogging	-10947
▁boarding	-10948
▁brushing	-10949
▁brutally	-10950
▁buddhism	-10951
▁bulgaria	-10952
▁calculus	-10953
▁cannabis	-10954
▁capacity	-10955
▁captured	-10956
▁carolina	-10957
▁cartoons	-10958
▁catching	-10959
▁censored	-10960
▁chairman	-10961
▁chickens	-10962
▁chloride	-10963
▁chlorine	-10964
▁circuits	-10965
▁cleavage	-10966
▁clinical	-10967
▁coloured	-10968
▁comedian	-10969
▁commonly	-10970
▁companys	-10971
▁consists	-10972
▁consumed	-10973
▁counting	-10974
▁coworker	-10975
▁crossing	-10976
▁declined	-10977
▁decorate	-10978
▁deducted	-10979
▁destined	-10980
▁deterior	-10981
▁diarrhea	-10982
▁disabled	-10983
▁diseases	-10984
▁dividing	-10985
▁dominate	-10986
▁downfall	-10987
▁dreamers	-10988
▁earrings	-10989
▁egyptian	-10990
▁entitled	-10991
▁estimate	-10992
▁evaluate	-10993
▁failures	-10994
▁feasible	-10995
▁feedback	-10996
▁feminine	-10997
▁feminist	-10998
▁fighters	-10999
▁floating	-11000
▁fortnite	-11001
▁founding	-11002
▁freezing	-11003
▁funniest	-11004
▁globally	-11005
▁grandson	-11006
▁guwahati	-11007
▁handling	-11008
▁handsome	-11009
▁historic	-11010
▁homework	-11011
▁homophob	-11012
▁ideology	-11013
▁illusion	-11014
▁imperial	-11015
▁includes	-11016
▁inherent	-11017
▁isolated	-11018
▁kejriwal	-11019
▁laziness	-11020
▁leftists	-11021
▁leverage	-11022
▁lobbying	-11023
▁logistic	-11024
▁massacre	-11025
▁measured	-11026
▁medicare	-11027
▁metallic	-11028
▁mexicans	-11029
▁missions	-11030
▁monetary	-11031
▁monsters	-11032
▁moroccan	-11033
▁muhammad	-11034
▁murderer	-11035
▁neurolog	-11036
▁nigerian	-11037
▁nintendo	-11038
▁observed	-11039
▁obsolete	-11040
▁oriented	-11041
▁orthodox	-11042
▁outdated	-11043
▁parttime	-11044
▁patience	-11045
▁pendulum	-11046
▁peroxide	-11047
▁politely	-11048
▁portugal	-11049
▁predator	-11050
▁printing	-11051
▁profound	-11052
▁promised	-11053
▁promises	-11054
▁protocol	-11055
▁province	-11056
▁quickest	-11057
▁ramayana	-11058
▁randomly	-11059
▁reaching	-11060
▁repeated	-11061
▁replaced	-11062
▁reported	-11063
▁sandwich	-11064
▁shortcut	-11065
▁shoulder	-11066
▁simplest	-11067
▁skeleton	-11068
▁skipping	-11069
▁sometime	-11070
▁sounding	-11071
▁stealing	-11072
▁stopping	-11073
▁strongly	-11074
▁sympathy	-11075
▁tendency	-11076
▁testicle	-11077
▁throwing	-11078
▁tortured	-11079
▁tracking	-11080
▁transist	-11081
▁triangle	-11082
▁troubles	-11083
▁ultimate	-11084
▁underest	-11085
▁versions	-11086
▁veterans	-11087
▁victoria	-11088
▁vladimir	-11089
▁wildlife	-11090
▁wireless	-11091
▁workload	-11092
▁workouts	-11093
▁wrestler	-11094
curricular	-11095
▁activists	-11096
▁adjective	-11097
▁aggregate	-11098
▁albanians	-11099
▁aluminium	-11100
▁appointed	-11101
▁aspergers	-11102
▁assassins	-11103
▁attacking	-11104
▁attending	-11105
▁brilliant	-11106
▁broadband	-11107
▁capgemini	-11108
▁caribbean	-11109
▁castrated	-11110
▁catholics	-11111
▁centuries	-11112
▁churchill	-11113
▁classroom	-11114
▁colleague	-11115
▁conductor	-11116
▁confusing	-11117
▁corrupted	-11118
▁cosmetics	-11119
▁creatures	-11120
▁dedicated	-11121
▁defending	-11122
▁dentistry	-11123
▁dependent	-11124
▁describes	-11125
▁detective	-11126
▁detergent	-11127
▁directory	-11128
▁dishonest	-11129
▁divisions	-11130
▁electroly	-11131
▁employers	-11132
▁enjoyable	-11133
▁excessive	-11134
▁excluding	-11135
▁fantasies	-11136
▁gradually	-11137
▁groceries	-11138
▁halloween	-11139
▁headphone	-11140
▁hurricane	-11141
▁ignorance	-11142
▁impeached	-11143
▁impressed	-11144
▁increases	-11145
▁inherited	-11146
▁inorganic	-11147
▁instantly	-11148
▁interfere	-11149
▁inventory	-11150
▁invisible	-11151
▁irritated	-11152
▁isolation	-11153
▁kashmiris	-11154
▁kidnapped	-11155
▁mcdonalds	-11156
▁menstrual	-11157
▁minnesota	-11158
▁molecular	-11159
▁mongolian	-11160
▁narrative	-11161
▁nationals	-11162
▁neighbors	-11163
▁nightmare	-11164
▁norwegian	-11165
▁numerical	-11166
▁nutrition	-11167
▁officials	-11168
▁operators	-11169
▁oppressed	-11170
▁overnight	-11171
▁palestine	-11172
▁partially	-11173
▁patanjali	-11174
▁perceived	-11175
▁personnel	-11176
▁portfolio	-11177
▁prevalent	-11178
▁prevented	-11179
▁princeton	-11180
▁privilege	-11181
▁producers	-11182
▁prominent	-11183
▁pronounce	-11184
▁rationale	-11185
▁recipient	-11186
▁recognise	-11187
▁reconcile	-11188
▁recovered	-11189
▁relevance	-11190
▁reluctant	-11191
▁rendering	-11192
▁replacing	-11193
▁residency	-11194
▁resistant	-11195
▁rightwing	-11196
▁scandinav	-11197
▁scenarios	-11198
▁scheduled	-11199
▁seemingly	-11200
▁sentences	-11201
▁stability	-11202
▁starbucks	-11203
▁stressful	-11204
▁stupidity	-11205
▁superhero	-11206
▁supporter	-11207
▁symbolize	-11208
▁synthetic	-11209
▁teenagers	-11210
▁tennessee	-11211
▁threatens	-11212
▁titration	-11213
▁touristic	-11214
▁tradition	-11215
▁traveller	-11216
▁treadmill	-11217
▁tutorials	-11218
▁uncertain	-11219
▁underwear	-11220
▁unexplain	-11221
▁universes	-11222
▁variables	-11223
▁warehouse	-11224
▁weightage	-11225
▁whirlpool	-11226
▁whitening	-11227
▁youtubers	-11228
▁accessible	-11229
▁accurately	-11230
▁apparently	-11231
▁appreciate	-11232
▁astronauts	-11233
▁atmosphere	-11234
▁atrocities	-11235
▁calculator	-11236
▁chandigarh	-11237
▁competitor	-11238
▁completion	-11239
▁compromise	-11240
▁continuity	-11241
▁conversion	-11242
▁creativity	-11243
▁criticisms	-11244
▁delusional	-11245
▁developers	-11246
▁diplomatic	-11247
▁disgusting	-11248
▁disrespect	-11249
▁engagement	-11250
▁federation	-11251
▁frustrated	-11252
▁generating	-11253
▁generators	-11254
▁graduating	-11255
▁horizontal	-11256
▁hurricanes	-11257
▁indefinite	-11258
▁indicators	-11259
▁inequality	-11260
▁influences	-11261
▁internally	-11262
▁leadership	-11263
▁linguistic	-11264
▁loneliness	-11265
▁malaysians	-11266
▁metabolism	-11267
▁multiverse	-11268
▁navigation	-11269
▁paranormal	-11270
▁photograph	-11271
▁prescribed	-11272
▁preventing	-11273
▁procedures	-11274
▁productive	-11275
▁publishing	-11276
▁quantities	-11277
▁references	-11278
▁referendum	-11279
▁reflection	-11280
▁relativity	-11281
▁remembered	-11282
▁ridiculous	-11283
▁similarity	-11284
▁sleeveless	-11285
▁structural	-11286
▁struggling	-11287
▁substitute	-11288
▁suspicious	-11289
▁traditions	-11290
▁transplant	-11291
▁understood	-11292
▁unemployed	-11293
▁unexpected	-11294
▁validation	-11295
▁vegetables	-11296
▁vocational	-11297
▁weaknesses	-11298
▁adversarial	-11299
▁allegations	-11300
▁atmospheric	-11301
▁attractions	-11302
▁catholicism	-11303
▁chlorophyll	-11304
▁circulating	-11305
▁combination	-11306
▁concentrate	-11307
▁conjunction	-11308
▁credentials	-11309
▁demographic	-11310
▁departments	-11311
▁deprivation	-11312
▁distributed	-11313
▁egotistical	-11314
▁embarrassed	-11315
▁encountered	-11316
▁equilibrium	-11317
▁exaggerated	-11318
▁expressions	-11319
▁fascinating	-11320
▁flexibility	-11321
▁formalities	-11322
▁grandfather	-11323
▁grandparent	-11324
▁hospitality	-11325
▁incorporate	-11326
▁inefficient	-11327
▁informative	-11328
▁intolerance	-11329
▁invitations	-11330
▁involvement	-11331
▁legislation	-11332
▁meaningless	-11333
▁measurement	-11334
▁medications	-11335
▁millennials	-11336
▁millionaire	-11337
▁nutritional	-11338
▁persecution	-11339
▁polytechnic	-11340
▁populations	-11341
▁precautions	-11342
▁procurement	-11343
▁progressive	-11344
▁questioning	-11345
▁scalability	-11346
▁selectively	-11347
▁selfdefense	-11348
▁singaporean	-11349
▁specialized	-11350
▁supermarket	-11351
▁sustainable	-11352
▁synchronous	-11353
▁transferred	-11354
▁trustworthy	-11355
▁uttarakhand	-11356
▁antisemitism	-11357
▁astrophysics	-11358
▁biochemistry	-11359
▁combinations	-11360
▁counterparts	-11361
▁dictatorship	-11362
▁intervention	-11363
▁motivational	-11364
▁northeastern	-11365
▁photographer	-11366
▁pornographic	-11367
▁prescription	-11368
▁progressives	-11369
▁psychologist	-11370
▁reservations	-11371
▁singaporeans	-11372
▁testosterone	-11373
▁transactions	-11374
▁approximately	-11375
▁breakthroughs	-11376
▁embarrassment	-11377
▁enlightenment	-11378
▁globalization	-11379
▁prerequisites	-11380
▁professionals	-11381
▁statistically	-11382
▁strategically	-11383
▁technological	-11384
▁classification	-11385
▁communications	-11386
▁demonetization	-11387
▁mathematicians	-11388
▁organizational	-11389
▁pharmaceutical	-11390
▁photosynthesis	-11391
▁reconciliation	-11392
▁representation	-11393
▁scientifically	-11394
▁extracurricular	-11395
▁procrastination	-11396
▁professionalism	-11397
▁technologically	-11398
01	-11399
07	-11400
13	-11401
27	-11402
71	-11403
84	-11404
93	-11405
95	-11406
eu	-11407
fy	-11408
gf	-11409
gg	-11410
gm	-11411
hu	-11412
jr	-11413
ln	-11414
mg	-11415
np	-11416
pm	-11417
py	-11418
wo	-11419
yo	-11420
yt	-11421
100	-11422
101	-11423
900	-11424
aca	-11425
acc	-11426
adh	-11427
ado	-11428
agi	-11429
ahu	-11430
aik	-11431
alf	-11432
asy	-11433
aus	-11434
ayy	-11435
aze	-11436
azi	-11437
bag	-11438
bai	-11439
bas	-11440
bat	-11441
bek	-11442
bes	-11443
bri	-11444
bul	-11445
bus	-11446
chi	-11447
ctr	-11448
dog	-11449
don	-11450
eda	-11451
elf	-11452
eng	-11453
enh	-11454
eon	-11455
eze	-11456
fac	-11457
fel	-11458
ffy	-11459
fla	-11460
gie	-11461
gro	-11462
gus	-11463
hin	-11464
hot	-11465
hyd	-11466
ima	-11467
inc	-11468
inj	-11469
ipo	-11470
ipu	-11471
iru	-11472
isp	-11473
jam	-11474
ksh	-11475
lav	-11476
lds	-11477
lee	-11478
len	-11479
lif	-11480
lpa	-11481
lyn	-11482
mal	-11483
nar	-11484
ois	-11485
ori	-11486
osc	-11487
oto	-11488
oxy	-11489
pec	-11490
pel	-11491
pon	-11492
psy	-11493
rat	-11494
rig	-11495
tan	-11496
tha	-11497
uay	-11498
ulk	-11499
bti	-11500
nap	-11501
oce	-11502
uma	-11503
upp	-11504
uri	-11505
uta	-11506
uty	-11507
who	-11508
yon	-11509
zed	-11510
zes	-11511
▁00	-11512
▁43	-11513
▁49	-11514
▁54	-11515
▁78	-11516
▁85	-11517
▁92	-11518
▁bd	-11519
▁bt	-11520
▁dx	-11521
▁dz	-11522
▁fm	-11523
▁gt	-11524
▁js	-11525
▁kd	-11526
▁ki	-11527
▁kj	-11528
▁kl	-11529
▁ko	-11530
▁mt	-11531
▁nb	-11532
▁oh	-11533
▁ow	-11534
▁rb	-11535
▁rm	-11536
▁rt	-11537
▁rw	-11538
▁sj	-11539
▁sq	-11540
▁uz	-11541
▁vt	-11542
achi	-11543
addy	-11544
adel	-11545
aghe	-11546
aine	-11547
airy	-11548
aiya	-11549
alam	-11550
angu	-11551
anor	-11552
aret	-11553
aria	-11554
arnt	-11555
asar	-11556
asia	-11557
atas	-11558
athi	-11559
atra	-11560
aved	-11561
avel	-11562
avid	-11563
away	-11564
bage	-11565
bait	-11566
bang	-11567
bars	-11568
benz	-11569
bern	-11570
bido	-11571
brew	-11572
bury	-11573
cake	-11574
carn	-11575
cede	-11576
cend	-11577
chid	-11578
cius	-11579
conn	-11580
cott	-11581
cuff	-11582
demy	-11583
dles	-11584
does	-11585
dose	-11586
duct	-11587
educ	-11588
ette	-11589
etts	-11590
fast	-11591
foot	-11592
gate	-11593
ghed	-11594
giar	-11595
gies	-11596
hani	-11597
have	-11598
heim	-11599
bya	-11600
hib	-11601
nox	-11602
▁eq	-11603
▁rr	-11604
▁xs	-11605
amsi	-11606
aras	-11607
esco	-11608
etra	-11609
hemy	-11610
hens	-11611
hesh	-11612
hill	-11613
hire	-11614
hmad	-11615
hots	-11616
iary	-11617
iaut	-11618
icep	-11619
icts	-11620
iere	-11621
ifax	-11622
igen	-11623
ighs	-11624
igil	-11625
igur	-11626
imed	-11627
inda	-11628
inea	-11629
inth	-11630
iper	-11631
iral	-11632
iscu	-11633
issa	-11634
ixon	-11635
izag	-11636
izon	-11637
jack	-11638
kins	-11639
laws	-11640
leep	-11641
llar	-11642
lled	-11643
lles	-11644
loem	-11645
long	-11646
male	-11647
mand	-11648
mans	-11649
mond	-11650
mund	-11651
nsic	-11652
ntra	-11653
nuts	-11654
offs	-11655
ogue	-11656
olid	-11657
open	-11658
opot	-11659
orex	-11660
orse	-11661
oshi	-11662
ovol	-11663
pean	-11664
phan	-11665
pher	-11666
phia	-11667
plex	-11668
pone	-11669
prot	-11670
raba	-11671
raul	-11672
remy	-11673
rich	-11674
ruff	-11675
scow	-11676
seed	-11677
sons	-11678
spot	-11679
star	-11680
stay	-11681
stra	-11682
tail	-11683
tics	-11684
uang	-11685
uish	-11686
ules	-11687
unge	-11688
unks	-11689
urit	-11690
uten	-11691
vail	-11692
vene	-11693
wage	-11694
wall	-11695
wife	-11696
wins	-11697
witz	-11698
wolf	-11699
mu	-11700
amy	-11701
cca	-11702
gae	-11703
mah	-11704
urg	-11705
asas	-11706
bapp	-11707
haar	-11708
iban	-11709
klam	-11710
nast	-11711
xcos	-11712
ysic	-11713
▁110	-11714
▁115	-11715
▁247	-11716
▁270	-11717
▁320	-11718
▁325	-11719
▁370	-11720
▁750	-11721
▁900	-11722
▁aap	-11723
▁abu	-11724
▁ait	-11725
▁alp	-11726
▁als	-11727
▁ana	-11728
▁ark	-11729
▁ary	-11730
▁asl	-11731
▁ate	-11732
▁axi	-11733
▁bam	-11734
▁cin	-11735
▁cma	-11736
▁coe	-11737
▁crm	-11738
▁csr	-11739
▁dan	-11740
▁dbs	-11741
▁dol	-11742
▁dot	-11743
▁dow	-11744
▁dup	-11745
▁ecc	-11746
▁ech	-11747
▁eco	-11748
▁ecs	-11749
▁elo	-11750
▁emc	-11751
▁emi	-11752
▁eos	-11753
▁eul	-11754
▁eve	-11755
▁exs	-11756
▁fea	-11757
▁fms	-11758
▁gag	-11759
▁gin	-11760
▁gis	-11761
▁git	-11762
▁gla	-11763
▁gop	-11764
▁gum	-11765
▁hep	-11766
▁hic	-11767
▁hil	-11768
▁hip	-11769
▁hog	-11770
▁hou	-11771
▁ibn	-11772
▁ibs	-11773
▁ico	-11774
▁ihm	-11775
▁iii	-11776
▁irs	-11777
▁iso	-11778
▁jor	-11779
▁jou	-11780
▁kay	-11781
▁koo	-11782
▁lan	-11783
▁lav	-11784
▁lia	-11785
▁lig	-11786
▁liz	-11787
▁llc	-11788
▁lok	-11789
▁lon	-11790
▁loy	-11791
▁ltd	-11792
▁lum	-11793
▁lyn	-11794
▁mei	-11795
▁mht	-11796
▁mim	-11797
▁mvp	-11798
▁nab	-11799
mov	-11800
nik	-11801
chet	-11802
iode	-11803
utch	-11804
ympt	-11805
▁118	-11806
▁180	-11807
▁cpa	-11808
▁dee	-11809
▁mik	-11810
▁nbc	-11811
▁ncc	-11812
▁ndt	-11813
▁nhl	-11814
▁npd	-11815
▁oli	-11816
▁onc	-11817
▁orb	-11818
▁ore	-11819
▁ota	-11820
▁otp	-11821
▁owe	-11822
▁oye	-11823
▁pax	-11824
▁pel	-11825
▁pis	-11826
▁pls	-11827
▁plu	-11828
▁plz	-11829
▁pms	-11830
▁rbi	-11831
▁ree	-11832
▁reh	-11833
▁rou	-11834
▁rrb	-11835
▁seg	-11836
▁shr	-11837
▁sie	-11838
▁sip	-11839
▁sop	-11840
▁sse	-11841
▁ssn	-11842
▁std	-11843
▁sut	-11844
▁syd	-11845
▁tds	-11846
▁tol	-11847
▁unp	-11848
▁vay	-11849
▁vba	-11850
▁vou	-11851
▁wet	-11852
▁wim	-11853
▁wix	-11854
▁wre	-11855
▁www	-11856
▁xam	-11857
▁xia	-11858
▁yam	-11859
▁yon	-11860
aders	-11861
aleed	-11862
alini	-11863
amics	-11864
amous	-11865
anasi	-11866
andha	-11867
anmar	-11868
annes	-11869
antee	-11870
apult	-11871
arbon	-11872
arket	-11873
astra	-11874
atore	-11875
attan	-11876
aucra	-11877
aught	-11878
aving	-11879
aways	-11880
bbing	-11881
bells	-11882
bergs	-11883
betic	-11884
bourg	-11885
cents	-11886
chair	-11887
check	-11888
cings	-11889
cloud	-11890
cutta	-11891
daugh	-11892
dered	-11893
dhpur	-11894
dious	-11895
doors	-11896
ected	-11897
edict	-11898
eless	-11899
bug	-11900
ico	-11901
nny	-11902
▁uf	-11903
amsh	-11904
shit	-11905
▁350	-11906
▁bie	-11907
▁ike	-11908
▁lug	-11909
▁rmo	-11910
apped	-11911
aspor	-11912
cases	-11913
ental	-11914
erjee	-11915
ermat	-11916
esium	-11917
estry	-11918
euver	-11919
faces	-11920
ffron	-11921
fires	-11922
force	-11923
gered	-11924
gging	-11925
gonal	-11926
hamed	-11927
heard	-11928
hered	-11929
hiana	-11930
hough	-11931
htags	-11932
ianic	-11933
icked	-11934
icone	-11935
idate	-11936
idine	-11937
igate	-11938
igmat	-11939
ignty	-11940
ilage	-11941
ilers	-11942
ilton	-11943
india	-11944
ionic	-11945
isure	-11946
itime	-11947
itism	-11948
ivals	-11949
kswag	-11950
layer	-11951
learn	-11952
lland	-11953
matic	-11954
metic	-11955
month	-11956
naiss	-11957
named	-11958
nesia	-11959
▁	-11960
e	-11961
a	-11962
t	-11963
o	-11964
i	-11965
n	-11966
s	-11967
r	-11968
h	-11969
l	-11970
d	-11971
c	-11972
w	-11973
u	-11974
m	-11975
y	-11976
p	-11977
f	-11978
g	-11979
b	-11980
v	-11981
k	-11982
x	-11983
j	-11984
0	-11985
1	-11986
q	-11987
2	-11988
z	-11989
5	-11990
3	-11991
8	-11992
7	-11993
4	-11994
9	-11995
